
#include <cstddef>
#include <cstdint>

// Tiny Depthwise CNN — INT8 TFLite Micro model
// Auto-generated C array

const unsigned char model[] = {
    32, 0, 0, 0, 84, 70, 76, 51, 0, 0, 0, 0, 20, 0, 32, 0, 28, 0, 24, 0, 20, 0, 16, 0, 12, 0, 0, 0, 8, 0, 4, 0, 20, 0, 0, 0, 28, 0, 0, 0, 140, 0, 0, 0, 228, 0, 0, 0, 196, 43, 0, 0, 212, 43, 0, 0, 108, 107, 0, 0, 3, 0, 0, 0, 1, 0, 0, 0, 4, 0, 0, 0, 122, 208, 255, 255, 12, 0, 0, 0, 28, 0, 0, 0, 60, 0, 0, 0, 15, 0, 0, 0, 115, 101, 114, 118, 105, 110, 103, 95, 100, 101, 102, 97, 117, 108, 116, 0, 1, 0, 0, 0, 4, 0, 0, 0, 144, 255, 255, 255, 48, 0, 0, 0, 4, 0, 0, 0, 8, 0, 0, 0, 111, 117, 116, 112, 117, 116, 95, 48, 0, 0, 0, 0, 1, 0, 0, 0, 4, 0, 0, 0, 194, 212, 255, 255, 4, 0, 0, 0, 12, 0, 0, 0, 107, 101, 114, 97, 115, 95, 116, 101, 110, 115, 111, 114, 0, 0, 0, 0, 2, 0, 0, 0, 52, 0, 0, 0, 4, 0, 0, 0, 220, 255, 255, 255, 51, 0, 0, 0, 4, 0, 0, 0, 19, 0, 0, 0, 67, 79, 78, 86, 69, 82, 83, 73, 79, 78, 95, 77, 69, 84, 65, 68, 65, 84, 65, 0, 8, 0, 12, 0, 8, 0, 4, 0, 8, 0, 0, 0, 50, 0, 0, 0, 4, 0, 0, 0, 19, 0, 0, 0, 109, 105, 110, 95, 114, 117, 110, 116, 105, 109, 101, 95, 118, 101, 114, 115, 105, 111, 110, 0, 52, 0, 0, 0, 220, 42, 0, 0, 212, 42, 0, 0, 192, 42, 0, 0, 156, 42, 0, 0, 128, 42, 0, 0, 100, 42, 0, 0, 80, 42, 0, 0, 32, 42, 0, 0, 144, 41, 0, 0, 128, 33, 0, 0, 48, 33, 0, 0, 224, 32, 0, 0, 208, 31, 0, 0, 192, 15, 0, 0, 176, 14, 0, 0, 224, 13, 0, 0, 144, 13, 0, 0, 64, 13, 0, 0, 48, 12, 0, 0, 32, 4, 0, 0, 144, 3, 0, 0, 224, 2, 0, 0, 176, 2, 0, 0, 128, 2, 0, 0, 240, 1, 0, 0, 128, 1, 0, 0, 100, 1, 0, 0, 68, 1, 0, 0, 60, 1, 0, 0, 52, 1, 0, 0, 44, 1, 0, 0, 36, 1, 0, 0, 28, 1, 0, 0, 20, 1, 0, 0, 12, 1, 0, 0, 4, 1, 0, 0, 252, 0, 0, 0, 244, 0, 0, 0, 236, 0, 0, 0, 228, 0, 0, 0, 220, 0, 0, 0, 212, 0, 0, 0, 204, 0, 0, 0, 196, 0, 0, 0, 188, 0, 0, 0, 180, 0, 0, 0, 172, 0, 0, 0, 164, 0, 0, 0, 156, 0, 0, 0, 148, 0, 0, 0, 116, 0, 0, 0, 4, 0, 0, 0, 14, 214, 255, 255, 4, 0, 0, 0, 96, 0, 0, 0, 12, 0, 0, 0, 8, 0, 14, 0, 8, 0, 4, 0, 8, 0, 0, 0, 16, 0, 0, 0, 40, 0, 0, 0, 0, 0, 6, 0, 8, 0, 4, 0, 6, 0, 0, 0, 4, 0, 0, 0, 1, 0, 0, 0, 235, 3, 0, 0, 12, 0, 24, 0, 20, 0, 16, 0, 12, 0, 4, 0, 12, 0, 0, 0, 176, 255, 21, 138, 169, 235, 192, 176, 2, 0, 0, 0, 2, 0, 0, 0, 4, 0, 0, 0, 6, 0, 0, 0, 50, 46, 50, 48, 46, 48, 0, 0, 122, 214, 255, 255, 4, 0, 0, 0, 16, 0, 0, 0, 49, 46, 49, 52, 46, 48, 0, 0, 0, 0, 0, 0, 0, 0, 0, 0, 144, 151, 255, 255, 148, 151, 255, 255, 152, 151, 255, 255, 156, 151, 255, 255, 160, 151, 255, 255, 164, 151, 255, 255, 168, 151, 255, 255, 172, 151, 255, 255, 176, 151, 255, 255, 180, 151, 255, 255, 184, 151, 255, 255, 188, 151, 255, 255, 192, 151, 255, 255, 196, 151, 255, 255, 200, 151, 255, 255, 204, 151, 255, 255, 208, 151, 255, 255, 212, 151, 255, 255, 216, 151, 255, 255, 220, 151, 255, 255, 224, 151, 255, 255, 228, 151, 255, 255, 238, 214, 255, 255, 4, 0, 0, 0, 15, 0, 0, 0, 238, 110, 127, 163, 192, 59, 129, 129, 183, 95, 194, 244, 84, 94, 253, 0, 10, 215, 255, 255, 4, 0, 0, 0, 12, 0, 0, 0, 0, 0, 0, 0, 0, 0, 0, 0, 0, 0, 0, 0, 34, 215, 255, 255, 4, 0, 0, 0, 96, 0, 0, 0, 153, 145, 127, 129, 239, 131, 115, 224, 129, 32, 251, 127, 38, 96, 129, 10, 35, 129, 62, 127, 243, 216, 74, 127, 123, 129, 172, 129, 68, 251, 158, 50, 129, 248, 129, 63, 193, 129, 152, 98, 129, 44, 187, 129, 207, 166, 137, 129, 22, 67, 129, 109, 129, 63, 107, 241, 129, 129, 78, 199, 56, 127, 162, 89, 75, 127, 129, 24, 182, 190, 185, 127, 45, 127, 73, 231, 129, 25, 129, 202, 122, 38, 129, 93, 11, 127, 235, 247, 129, 198, 150, 127, 138, 187, 127, 115, 142, 215, 255, 255, 4, 0, 0, 0, 128, 0, 0, 0, 33, 0, 0, 0, 230, 255, 255, 255, 212, 254, 255, 255, 77, 0, 0, 0, 93, 0, 0, 0, 177, 0, 0, 0, 83, 0, 0, 0, 130, 255, 255, 255, 206, 255, 255, 255, 50, 0, 0, 0, 162, 254, 255, 255, 134, 0, 0, 0, 38, 254, 255, 255, 28, 3, 0, 0, 134, 0, 0, 0, 244, 0, 0, 0, 162, 254, 255, 255, 118, 4, 0, 0, 154, 0, 0, 0, 231, 2, 0, 0, 225, 254, 255, 255, 212, 254, 255, 255, 133, 0, 0, 0, 68, 0, 0, 0, 49, 254, 255, 255, 136, 254, 255, 255, 224, 255, 255, 255, 131, 255, 255, 255, 156, 0, 0, 0, 80, 0, 0, 0, 138, 3, 0, 0, 180, 255, 255, 255, 26, 216, 255, 255, 4, 0, 0, 0, 32, 0, 0, 0, 252, 20, 35, 23, 39, 60, 87, 47, 255, 25, 24, 92, 37, 7, 25, 32, 70, 53, 32, 237, 58, 10, 248, 45, 106, 127, 7, 53, 113, 64, 234, 37, 70, 216, 255, 255, 4, 0, 0, 0, 32, 0, 0, 0, 200, 242, 5, 221, 206, 206, 9, 11, 224, 229, 12, 230, 28, 128, 188, 226, 16, 134, 197, 169, 23, 0, 206, 220, 72, 97, 222, 11, 20, 234, 153, 244, 114, 216, 255, 255, 4, 0, 0, 0, 160, 0, 0, 0, 28, 0, 94, 55, 155, 59, 28, 224, 232, 57, 214, 101, 129, 154, 30, 250, 28, 247, 180, 193, 225, 129, 53, 100, 24, 177, 129, 108, 108, 155, 127, 97, 129, 34, 181, 168, 188, 129, 208, 206, 160, 217, 37, 191, 200, 158, 127, 217, 228, 23, 127, 237, 9, 146, 216, 109, 149, 145, 250, 14, 38, 201, 193, 127, 150, 127, 183, 127, 129, 15, 108, 184, 127, 254, 127, 29, 129, 127, 77, 129, 24, 25, 73, 127, 169, 7, 129, 135, 235, 189, 81, 127, 129, 127, 245, 63, 205, 29, 69, 169, 92, 183, 127, 66, 229, 85, 175, 129, 99, 87, 176, 241, 218, 129, 149, 139, 103, 71, 80, 97, 129, 129, 175, 79, 89, 83, 60, 101, 75, 152, 127, 136, 120, 62, 97, 129, 186, 129, 210, 50, 154, 243, 17, 109, 127, 87, 25, 48, 127, 2, 31, 129, 16, 248, 19, 61, 75, 194, 170, 54, 30, 217, 255, 255, 4, 0, 0, 0, 128, 0, 0, 0, 0, 0, 0, 0, 0, 0, 0, 0, 0, 0, 0, 0, 0, 0, 0, 0, 0, 0, 0, 0, 0, 0, 0, 0, 0, 0, 0, 0, 0, 0, 0, 0, 0, 0, 0, 0, 0, 0, 0, 0, 0, 0, 0, 0, 0, 0, 0, 0, 0, 0, 0, 0, 0, 0, 0, 0, 0, 0, 0, 0, 0, 0, 0, 0, 0, 0, 0, 0, 0, 0, 0, 0, 0, 0, 0, 0, 0, 0, 0, 0, 0, 0, 0, 0, 0, 0, 0, 0, 0, 0, 0, 0, 0, 0, 0, 0, 0, 0, 0, 0, 0, 0, 0, 0, 0, 0, 0, 0, 0, 0, 0, 0, 0, 0, 0, 0, 0, 0, 0, 0, 0, 0, 0, 0, 0, 0, 0, 0, 170, 217, 255, 255, 4, 0, 0, 0, 0, 8, 0, 0, 147, 24, 218, 215, 141, 42, 126, 73, 54, 24, 221, 36, 115, 38, 63, 243, 137, 147, 52, 119, 221, 72, 195, 245, 58, 52, 98, 188, 129, 209, 143, 84, 49, 18, 174, 13, 32, 242, 227, 213, 46, 49, 193, 205, 244, 231, 228, 22, 202, 185, 184, 33, 47, 7, 77, 4, 127, 208, 5, 230, 68, 221, 249, 165, 5, 62, 222, 127, 238, 37, 155, 250, 40, 244, 204, 52, 31, 166, 177, 85, 255, 169, 22, 64, 197, 53, 32, 245, 212, 206, 186, 200, 216, 63, 131, 197, 237, 1, 129, 82, 153, 88, 89, 41, 189, 240, 79, 149, 2, 219, 249, 46, 168, 202, 177, 27, 204, 50, 216, 208, 109, 233, 190, 144, 3, 70, 192, 84, 7, 23, 61, 102, 36, 159, 193, 80, 16, 163, 220, 249, 6, 224, 237, 37, 49, 62, 218, 232, 41, 216, 127, 49, 158, 140, 224, 162, 27, 240, 3, 231, 184, 234, 195, 68, 29, 9, 254, 88, 57, 43, 168, 129, 42, 4, 37, 189, 172, 81, 36, 205, 243, 0, 209, 16, 75, 198, 70, 226, 11, 51, 221, 14, 229, 96, 31, 82, 56, 67, 164, 59, 225, 127, 217, 223, 110, 197, 74, 164, 41, 215, 25, 240, 106, 18, 176, 183, 39, 138, 220, 57, 44, 255, 27, 16, 240, 106, 134, 187, 95, 248, 157, 15, 213, 125, 73, 147, 78, 85, 253, 127, 17, 96, 85, 227, 161, 47, 76, 12, 94, 51, 80, 49, 245, 55, 202, 131, 14, 247, 188, 83, 124, 254, 94, 197, 196, 120, 165, 31, 187, 107, 99, 147, 71, 206, 40, 98, 18, 213, 166, 197, 237, 127, 189, 252, 18, 53, 104, 43, 141, 234, 111, 230, 142, 241, 149, 176, 175, 48, 252, 210, 88, 204, 224, 81, 127, 241, 231, 176, 252, 71, 228, 40, 147, 21, 83, 87, 68, 209, 234, 186, 179, 206, 85, 217, 89, 180, 187, 227, 221, 187, 180, 194, 190, 30, 94, 156, 85, 198, 127, 169, 172, 28, 75, 6, 247, 229, 203, 163, 171, 97, 55, 193, 199, 221, 31, 17, 26, 83, 72, 3, 1, 173, 168, 156, 212, 199, 24, 40, 203, 49, 212, 78, 14, 193, 227, 146, 109, 1, 127, 47, 81, 68, 94, 38, 188, 163, 15, 130, 88, 43, 180, 217, 77, 1, 152, 101, 217, 104, 129, 29, 56, 196, 51, 235, 98, 237, 99, 235, 57, 8, 18, 232, 113, 42, 165, 90, 9, 104, 163, 141, 31, 172, 76, 4, 74, 205, 38, 173, 73, 156, 215, 156, 38, 34, 13, 255, 171, 53, 175, 129, 58, 16, 231, 18, 79, 84, 161, 237, 162, 49, 239, 31, 24, 67, 9, 237, 44, 139, 221, 77, 79, 214, 193, 205, 1, 211, 204, 197, 35, 232, 78, 0, 70, 129, 210, 242, 49, 8, 66, 198, 169, 197, 4, 126, 242, 68, 109, 52, 133, 47, 39, 187, 102, 61, 252, 193, 245, 46, 36, 158, 182, 50, 95, 220, 201, 99, 119, 161, 253, 20, 104, 129, 52, 69, 28, 217, 179, 45, 33, 254, 81, 222, 60, 232, 64, 231, 28, 214, 60, 167, 181, 209, 18, 208, 179, 73, 93, 50, 246, 43, 193, 132, 129, 218, 38, 130, 11, 19, 226, 33, 6, 154, 82, 156, 59, 160, 93, 84, 231, 176, 13, 196, 161, 220, 172, 175, 55, 74, 86, 185, 127, 233, 37, 32, 26, 234, 158, 182, 240, 39, 34, 90, 178, 36, 103, 250, 235, 129, 33, 163, 0, 23, 16, 191, 188, 152, 99, 28, 156, 240, 210, 162, 203, 230, 249, 91, 244, 211, 184, 150, 50, 54, 209, 219, 144, 9, 129, 54, 87, 192, 252, 233, 29, 207, 196, 240, 213, 84, 73, 142, 44, 234, 39, 213, 12, 237, 212, 180, 223, 78, 11, 191, 178, 44, 85, 89, 138, 69, 234, 19, 202, 174, 68, 3, 177, 196, 188, 243, 171, 5, 205, 10, 106, 113, 229, 204, 194, 73, 159, 179, 201, 129, 43, 20, 237, 43, 33, 9, 129, 9, 188, 57, 38, 194, 39, 1, 35, 197, 38, 61, 16, 211, 233, 250, 234, 24, 243, 91, 82, 220, 10, 13, 231, 184, 235, 210, 4, 7, 237, 129, 241, 225, 57, 230, 71, 2, 25, 24, 245, 242, 167, 229, 0, 196, 233, 22, 186, 181, 28, 195, 72, 238, 21, 163, 31, 134, 100, 44, 129, 15, 28, 13, 8, 57, 247, 230, 250, 44, 23, 30, 148, 61, 196, 17, 200, 42, 97, 240, 94, 37, 101, 254, 147, 255, 180, 237, 191, 227, 178, 189, 203, 43, 250, 88, 46, 129, 43, 207, 240, 222, 79, 42, 221, 179, 95, 182, 12, 248, 113, 30, 7, 32, 61, 253, 18, 61, 202, 246, 244, 215, 127, 195, 69, 67, 198, 144, 34, 203, 212, 182, 32, 202, 211, 79, 168, 153, 154, 3, 209, 70, 51, 190, 60, 252, 62, 10, 230, 20, 199, 47, 40, 238, 73, 154, 249, 175, 129, 221, 179, 103, 62, 1, 248, 151, 207, 174, 61, 168, 44, 210, 159, 184, 158, 34, 242, 163, 7, 226, 201, 210, 88, 72, 14, 40, 240, 170, 71, 84, 26, 167, 178, 169, 61, 236, 96, 253, 42, 14, 225, 8, 39, 57, 214, 93, 158, 127, 45, 40, 167, 161, 221, 28, 217, 153, 191, 218, 75, 53, 189, 63, 35, 99, 129, 253, 146, 202, 19, 102, 141, 170, 247, 224, 144, 255, 181, 249, 198, 254, 108, 212, 205, 45, 211, 182, 108, 51, 200, 11, 208, 214, 162, 153, 153, 81, 217, 245, 250, 170, 160, 49, 5, 51, 99, 91, 242, 6, 186, 152, 70, 3, 237, 201, 240, 41, 216, 5, 51, 129, 130, 177, 93, 155, 225, 58, 11, 255, 67, 87, 49, 212, 38, 49, 207, 4, 204, 174, 157, 196, 12, 157, 54, 31, 127, 207, 78, 22, 244, 164, 104, 164, 48, 150, 213, 101, 60, 247, 223, 127, 182, 202, 224, 4, 43, 80, 154, 78, 69, 14, 237, 170, 246, 55, 14, 249, 26, 56, 224, 148, 242, 7, 237, 142, 48, 255, 103, 247, 129, 145, 157, 181, 191, 175, 224, 139, 228, 35, 93, 219, 52, 96, 44, 22, 117, 254, 60, 179, 183, 42, 212, 174, 11, 101, 221, 25, 74, 142, 245, 162, 195, 94, 200, 93, 94, 244, 2, 62, 61, 56, 69, 251, 151, 22, 129, 151, 225, 106, 152, 71, 56, 245, 181, 68, 81, 82, 195, 251, 60, 97, 60, 193, 163, 46, 35, 215, 25, 13, 255, 46, 176, 127, 53, 255, 231, 230, 221, 142, 19, 66, 38, 51, 177, 64, 235, 185, 91, 68, 17, 155, 210, 145, 37, 45, 26, 40, 17, 65, 161, 242, 127, 1, 211, 7, 104, 19, 181, 223, 241, 63, 236, 73, 77, 32, 84, 227, 60, 37, 68, 153, 173, 104, 82, 50, 23, 177, 222, 30, 22, 59, 62, 228, 255, 9, 62, 5, 29, 167, 129, 205, 104, 32, 247, 162, 188, 140, 236, 24, 234, 78, 200, 68, 176, 38, 171, 59, 251, 3, 83, 209, 66, 31, 129, 99, 33, 187, 195, 178, 160, 59, 181, 29, 219, 236, 146, 232, 233, 11, 191, 212, 78, 192, 102, 67, 247, 0, 4, 51, 12, 168, 5, 240, 202, 252, 5, 43, 101, 237, 248, 30, 18, 238, 209, 231, 253, 129, 148, 79, 214, 18, 47, 243, 229, 179, 34, 37, 51, 117, 19, 134, 78, 206, 23, 217, 43, 115, 65, 194, 220, 31, 156, 204, 130, 73, 27, 201, 14, 232, 246, 127, 45, 18, 227, 2, 87, 160, 104, 250, 207, 252, 230, 202, 232, 225, 39, 184, 121, 127, 20, 76, 45, 232, 210, 135, 56, 240, 250, 193, 43, 196, 12, 225, 34, 154, 248, 83, 55, 57, 35, 237, 177, 75, 60, 169, 187, 172, 180, 101, 198, 194, 232, 59, 91, 117, 75, 204, 79, 129, 82, 55, 38, 0, 164, 87, 242, 63, 218, 69, 244, 45, 0, 169, 225, 62, 224, 241, 238, 218, 102, 165, 148, 105, 110, 224, 69, 1, 183, 92, 216, 39, 55, 127, 173, 254, 171, 183, 152, 165, 174, 218, 79, 107, 6, 230, 61, 213, 244, 196, 13, 241, 129, 183, 158, 144, 216, 176, 185, 244, 247, 243, 154, 230, 23, 119, 161, 33, 44, 28, 131, 0, 166, 211, 91, 227, 248, 204, 22, 169, 224, 250, 108, 140, 14, 18, 170, 255, 35, 114, 199, 151, 98, 99, 129, 164, 78, 175, 197, 188, 205, 207, 18, 84, 166, 212, 122, 211, 100, 202, 67, 37, 26, 247, 233, 136, 123, 14, 204, 191, 167, 96, 66, 229, 150, 211, 190, 3, 213, 4, 187, 129, 159, 11, 232, 44, 180, 132, 219, 195, 228, 12, 24, 111, 42, 159, 187, 49, 92, 148, 184, 61, 2, 206, 81, 249, 45, 80, 72, 136, 52, 81, 250, 17, 158, 127, 177, 254, 89, 229, 203, 211, 72, 50, 203, 211, 247, 228, 216, 191, 12, 97, 232, 8, 37, 186, 65, 196, 194, 18, 232, 167, 229, 39, 55, 157, 44, 95, 28, 193, 17, 210, 159, 197, 127, 164, 6, 244, 209, 72, 19, 192, 238, 212, 78, 144, 129, 192, 166, 187, 41, 250, 194, 225, 154, 38, 4, 73, 62, 174, 207, 248, 193, 15, 6, 221, 143, 56, 31, 15, 218, 75, 21, 167, 36, 7, 118, 87, 252, 195, 91, 229, 51, 217, 79, 183, 246, 56, 194, 25, 88, 141, 191, 174, 58, 116, 75, 13, 129, 19, 102, 42, 223, 216, 189, 28, 72, 183, 18, 198, 127, 63, 188, 151, 9, 20, 164, 174, 12, 250, 140, 214, 30, 52, 198, 85, 214, 163, 231, 193, 55, 74, 36, 174, 88, 28, 97, 26, 87, 51, 230, 72, 107, 28, 239, 100, 66, 168, 197, 215, 127, 179, 99, 202, 10, 218, 157, 10, 238, 83, 227, 192, 30, 200, 161, 46, 24, 238, 48, 83, 180, 5, 170, 123, 194, 197, 3, 232, 230, 173, 247, 180, 240, 203, 238, 76, 47, 91, 79, 167, 145, 153, 108, 176, 214, 3, 127, 79, 28, 211, 255, 90, 75, 219, 91, 40, 234, 87, 9, 161, 127, 200, 70, 202, 202, 191, 175, 204, 213, 35, 198, 235, 14, 188, 226, 191, 218, 32, 236, 90, 211, 87, 230, 34, 93, 64, 76, 203, 189, 226, 129, 139, 1, 64, 190, 175, 114, 194, 53, 189, 110, 172, 240, 222, 3, 229, 12, 43, 181, 63, 231, 188, 62, 212, 48, 195, 106, 221, 23, 179, 219, 186, 47, 175, 238, 129, 10, 23, 175, 8, 131, 130, 108, 174, 173, 168, 213, 228, 88, 194, 2, 78, 199, 200, 60, 189, 80, 55, 207, 253, 83, 25, 161, 104, 20, 249, 183, 229, 156, 51, 167, 253, 138, 21, 42, 192, 178, 36, 168, 250, 179, 67, 187, 154, 129, 46, 249, 34, 28, 170, 35, 76, 30, 10, 220, 170, 174, 214, 22, 198, 45, 190, 52, 75, 9, 4, 187, 50, 241, 53, 4, 2, 27, 21, 32, 57, 217, 203, 129, 179, 175, 177, 191, 204, 193, 7, 58, 0, 15, 13, 127, 161, 196, 162, 17, 22, 237, 249, 244, 125, 15, 79, 45, 62, 185, 233, 210, 182, 106, 194, 253, 163, 29, 35, 73, 246, 23, 46, 77, 188, 96, 129, 170, 78, 146, 122, 57, 4, 225, 99, 42, 209, 178, 29, 204, 57, 9, 226, 231, 208, 219, 15, 93, 188, 166, 244, 223, 146, 150, 85, 152, 92, 56, 237, 123, 213, 177, 20, 197, 38, 62, 173, 32, 161, 231, 62, 129, 158, 184, 96, 168, 95, 137, 158, 81, 70, 211, 63, 77, 211, 78, 235, 63, 27, 84, 35, 187, 178, 49, 63, 207, 13, 181, 28, 4, 242, 190, 129, 186, 104, 161, 34, 239, 85, 9, 196, 57, 163, 91, 201, 102, 74, 117, 23, 185, 59, 135, 172, 166, 204, 62, 131, 222, 185, 88, 178, 129, 118, 29, 157, 220, 241, 135, 107, 234, 215, 228, 172, 248, 160, 162, 16, 252, 13, 33, 48, 33, 56, 23, 235, 182, 86, 235, 193, 80, 93, 129, 73, 172, 95, 153, 14, 13, 239, 226, 203, 24, 192, 186, 167, 218, 229, 182, 225, 255, 255, 4, 0, 0, 0, 0, 1, 0, 0, 120, 254, 255, 255, 94, 254, 255, 255, 20, 254, 255, 255, 165, 252, 255, 255, 112, 255, 255, 255, 213, 254, 255, 255, 80, 1, 0, 0, 13, 254, 255, 255, 93, 254, 255, 255, 157, 0, 0, 0, 230, 253, 255, 255, 38, 1, 0, 0, 100, 254, 255, 255, 253, 0, 0, 0, 231, 4, 0, 0, 111, 254, 255, 255, 75, 253, 255, 255, 255, 255, 255, 255, 210, 255, 255, 255, 229, 1, 0, 0, 100, 3, 0, 0, 198, 0, 0, 0, 93, 255, 255, 255, 149, 1, 0, 0, 209, 0, 0, 0, 149, 254, 255, 255, 18, 255, 255, 255, 13, 253, 255, 255, 67, 255, 255, 255, 58, 250, 255, 255, 255, 255, 255, 255, 172, 253, 255, 255, 241, 1, 0, 0, 126, 255, 255, 255, 223, 254, 255, 255, 194, 254, 255, 255, 84, 254, 255, 255, 122, 0, 0, 0, 214, 253, 255, 255, 30, 254, 255, 255, 222, 252, 255, 255, 204, 1, 0, 0, 104, 255, 255, 255, 192, 255, 255, 255, 181, 255, 255, 255, 142, 0, 0, 0, 79, 255, 255, 255, 214, 255, 255, 255, 22, 2, 0, 0, 164, 251, 255, 255, 132, 0, 0, 0, 106, 1, 0, 0, 124, 1, 0, 0, 138, 2, 0, 0, 90, 254, 255, 255, 91, 3, 0, 0, 246, 2, 0, 0, 201, 255, 255, 255, 102, 254, 255, 255, 109, 255, 255, 255, 152, 255, 255, 255, 12, 0, 0, 0, 84, 255, 255, 255, 115, 255, 255, 255, 194, 226, 255, 255, 4, 0, 0, 0, 64, 0, 0, 0, 91, 106, 70, 109, 81, 119, 24, 116, 52, 64, 44, 30, 68, 58, 86, 79, 127, 112, 84, 24, 55, 78, 124, 92, 75, 102, 59, 111, 88, 109, 24, 34, 26, 20, 114, 95, 8, 74, 120, 74, 118, 94, 76, 76, 43, 89, 63, 17, 248, 85, 27, 21, 54, 11, 29, 66, 85, 91, 97, 32, 38, 43, 23, 124, 14, 227, 255, 255, 4, 0, 0, 0, 64, 0, 0, 0, 27, 198, 210, 39, 13, 22, 254, 249, 8, 247, 28, 237, 253, 251, 128, 224, 75, 35, 5, 233, 172, 185, 253, 209, 28, 20, 16, 45, 7, 70, 164, 63, 222, 245, 9, 212, 12, 206, 6, 12, 45, 210, 0, 29, 214, 224, 27, 4, 200, 22, 2, 19, 9, 201, 24, 183, 158, 253, 15, 5, 248, 253, 249, 12, 90, 227, 255, 255, 4, 0, 0, 0, 192, 0, 0, 0, 150, 189, 127, 81, 129, 233, 127, 228, 163, 42, 48, 195, 242, 129, 6, 127, 153, 127, 32, 127, 254, 69, 129, 56, 127, 127, 127, 156, 129, 127, 85, 127, 184, 88, 64, 68, 129, 202, 229, 119, 214, 127, 129, 211, 127, 126, 127, 252, 136, 30, 205, 158, 172, 129, 23, 190, 127, 211, 34, 127, 83, 213, 97, 237, 129, 86, 118, 129, 70, 20, 44, 6, 129, 239, 105, 129, 129, 229, 22, 60, 251, 14, 127, 141, 129, 191, 17, 183, 132, 230, 64, 127, 167, 48, 183, 215, 127, 129, 7, 127, 183, 36, 250, 127, 129, 176, 65, 129, 21, 127, 146, 127, 127, 127, 205, 129, 129, 156, 122, 123, 137, 255, 127, 250, 129, 10, 133, 212, 164, 127, 66, 59, 135, 127, 111, 129, 50, 129, 127, 73, 216, 211, 129, 248, 129, 86, 176, 93, 48, 129, 27, 129, 233, 115, 151, 100, 212, 212, 127, 78, 177, 225, 127, 244, 0, 129, 129, 205, 207, 210, 207, 214, 105, 136, 114, 73, 61, 229, 129, 227, 61, 60, 127, 127, 36, 129, 60, 152, 140, 129, 129, 129, 38, 228, 255, 255, 4, 0, 0, 0, 0, 1, 0, 0, 0, 0, 0, 0, 0, 0, 0, 0, 0, 0, 0, 0, 0, 0, 0, 0, 0, 0, 0, 0, 0, 0, 0, 0, 0, 0, 0, 0, 0, 0, 0, 0, 0, 0, 0, 0, 0, 0, 0, 0, 0, 0, 0, 0, 0, 0, 0, 0, 0, 0, 0, 0, 0, 0, 0, 0, 0, 0, 0, 0, 0, 0, 0, 0, 0, 0, 0, 0, 0, 0, 0, 0, 0, 0, 0, 0, 0, 0, 0, 0, 0, 0, 0, 0, 0, 0, 0, 0, 0, 0, 0, 0, 0, 0, 0, 0, 0, 0, 0, 0, 0, 0, 0, 0, 0, 0, 0, 0, 0, 0, 0, 0, 0, 0, 0, 0, 0, 0, 0, 0, 0, 0, 0, 0, 0, 0, 0, 0, 0, 0, 0, 0, 0, 0, 0, 0, 0, 0, 0, 0, 0, 0, 0, 0, 0, 0, 0, 0, 0, 0, 0, 0, 0, 0, 0, 0, 0, 0, 0, 0, 0, 0, 0, 0, 0, 0, 0, 0, 0, 0, 0, 0, 0, 0, 0, 0, 0, 0, 0, 0, 0, 0, 0, 0, 0, 0, 0, 0, 0, 0, 0, 0, 0, 0, 0, 0, 0, 0, 0, 0, 0, 0, 0, 0, 0, 0, 0, 0, 0, 0, 0, 0, 0, 0, 0, 0, 0, 0, 0, 0, 0, 0, 0, 0, 0, 0, 0, 0, 0, 0, 0, 0, 0, 0, 0, 0, 0, 0, 0, 0, 0, 0, 0, 0, 0, 0, 0, 0, 0, 0, 0, 0, 0, 0, 0, 0, 50, 229, 255, 255, 4, 0, 0, 0, 0, 16, 0, 0, 55, 236, 234, 213, 186, 14, 46, 37, 74, 40, 67, 11, 179, 15, 176, 101, 201, 244, 1, 12, 35, 175, 48, 24, 67, 212, 24, 4, 30, 206, 217, 59, 188, 15, 235, 205, 53, 2, 196, 172, 129, 6, 21, 166, 98, 75, 246, 61, 53, 176, 245, 68, 70, 203, 219, 204, 195, 8, 232, 200, 180, 220, 203, 9, 34, 113, 202, 127, 210, 229, 190, 234, 193, 115, 167, 95, 31, 192, 244, 100, 46, 12, 107, 45, 91, 176, 192, 59, 236, 169, 23, 218, 188, 80, 210, 47, 211, 73, 21, 49, 193, 237, 90, 21, 108, 89, 46, 5, 220, 193, 204, 77, 33, 214, 84, 249, 253, 194, 81, 30, 244, 187, 51, 185, 247, 107, 216, 71, 204, 224, 178, 168, 238, 37, 27, 252, 37, 25, 185, 57, 77, 21, 47, 86, 247, 45, 7, 65, 204, 24, 2, 220, 216, 214, 42, 255, 37, 186, 205, 190, 223, 67, 3, 2, 217, 36, 16, 46, 1, 38, 181, 64, 16, 253, 231, 247, 62, 210, 20, 253, 234, 60, 251, 26, 129, 226, 70, 212, 8, 254, 201, 43, 114, 13, 146, 236, 82, 210, 212, 217, 127, 84, 223, 52, 41, 2, 47, 94, 249, 103, 241, 3, 61, 54, 37, 190, 227, 172, 18, 176, 63, 9, 110, 2, 114, 83, 255, 219, 40, 58, 3, 231, 216, 50, 0, 44, 249, 182, 222, 24, 55, 56, 55, 19, 5, 75, 179, 107, 242, 93, 249, 228, 254, 116, 59, 15, 182, 42, 20, 215, 227, 173, 74, 200, 221, 180, 254, 221, 164, 68, 12, 207, 202, 4, 253, 193, 219, 221, 89, 31, 6, 129, 10, 174, 251, 224, 217, 217, 226, 7, 202, 222, 3, 38, 91, 7, 245, 19, 14, 187, 48, 73, 89, 232, 34, 40, 243, 203, 2, 76, 205, 241, 197, 189, 216, 57, 190, 173, 37, 90, 14, 46, 190, 136, 161, 247, 60, 76, 9, 46, 17, 173, 168, 242, 127, 183, 1, 168, 226, 49, 134, 198, 247, 191, 103, 213, 240, 105, 123, 160, 194, 91, 235, 158, 216, 32, 241, 151, 220, 33, 72, 249, 53, 208, 1, 204, 255, 179, 203, 123, 6, 197, 20, 16, 238, 86, 174, 250, 192, 255, 217, 196, 250, 101, 17, 242, 48, 230, 224, 120, 197, 63, 200, 175, 9, 208, 205, 198, 240, 6, 250, 244, 56, 83, 28, 223, 204, 66, 105, 37, 53, 212, 234, 38, 213, 45, 189, 184, 18, 9, 225, 52, 215, 47, 77, 12, 9, 24, 129, 222, 197, 37, 226, 32, 191, 75, 31, 182, 234, 161, 234, 146, 162, 6, 95, 249, 232, 154, 233, 91, 55, 210, 5, 238, 188, 102, 242, 46, 166, 204, 3, 198, 221, 169, 124, 155, 42, 5, 173, 22, 58, 168, 213, 182, 74, 108, 236, 59, 225, 192, 201, 43, 129, 215, 91, 5, 17, 186, 179, 47, 49, 24, 83, 147, 67, 166, 198, 116, 233, 21, 168, 151, 159, 83, 241, 90, 194, 225, 212, 210, 8, 59, 152, 210, 177, 88, 198, 51, 205, 250, 94, 94, 252, 189, 199, 33, 137, 150, 217, 47, 5, 86, 47, 180, 224, 47, 27, 200, 94, 165, 9, 83, 215, 53, 0, 236, 231, 153, 237, 238, 32, 22, 7, 6, 184, 158, 9, 120, 71, 27, 55, 213, 159, 5, 136, 122, 188, 178, 103, 88, 28, 103, 43, 127, 186, 160, 222, 106, 183, 167, 164, 100, 156, 4, 53, 172, 26, 146, 23, 144, 172, 47, 191, 93, 161, 12, 183, 100, 11, 96, 224, 10, 239, 226, 102, 36, 45, 170, 95, 211, 47, 229, 213, 36, 179, 43, 78, 219, 180, 112, 56, 122, 244, 67, 52, 81, 59, 231, 209, 87, 112, 169, 199, 174, 28, 201, 59, 127, 63, 165, 143, 18, 108, 37, 34, 241, 168, 101, 247, 95, 254, 111, 195, 219, 234, 187, 192, 167, 24, 130, 129, 29, 95, 8, 23, 198, 86, 56, 163, 213, 47, 206, 9, 34, 188, 33, 29, 176, 12, 4, 191, 243, 57, 194, 172, 18, 23, 9, 228, 18, 30, 234, 208, 205, 212, 211, 251, 244, 59, 25, 207, 7, 248, 64, 185, 251, 95, 50, 243, 228, 72, 88, 216, 184, 224, 247, 189, 225, 11, 70, 96, 38, 113, 183, 82, 148, 25, 23, 235, 167, 1, 115, 214, 132, 53, 194, 19, 100, 177, 43, 226, 231, 92, 193, 129, 168, 224, 144, 71, 236, 47, 137, 33, 90, 252, 247, 47, 104, 142, 227, 22, 57, 229, 1, 241, 46, 50, 68, 102, 238, 20, 41, 123, 251, 140, 183, 215, 75, 252, 30, 116, 105, 32, 227, 46, 198, 48, 224, 102, 242, 191, 43, 58, 228, 178, 237, 178, 204, 216, 163, 0, 159, 180, 76, 103, 189, 175, 56, 87, 124, 134, 103, 86, 24, 205, 129, 15, 192, 247, 16, 103, 176, 19, 87, 232, 185, 26, 230, 236, 50, 64, 23, 11, 160, 189, 69, 4, 48, 199, 1, 238, 127, 42, 60, 224, 105, 44, 204, 16, 159, 94, 209, 167, 136, 237, 110, 244, 50, 5, 75, 59, 13, 228, 238, 65, 25, 35, 38, 59, 88, 12, 191, 39, 200, 72, 172, 61, 21, 86, 191, 221, 83, 211, 246, 212, 20, 38, 192, 87, 57, 150, 85, 64, 89, 245, 111, 23, 201, 53, 36, 38, 37, 95, 213, 16, 51, 232, 218, 86, 202, 86, 59, 69, 49, 77, 241, 163, 90, 191, 50, 202, 34, 16, 239, 229, 232, 212, 33, 207, 254, 217, 186, 224, 73, 32, 166, 13, 27, 227, 83, 150, 247, 29, 45, 171, 164, 27, 197, 199, 187, 184, 20, 21, 129, 255, 214, 200, 28, 199, 161, 172, 28, 31, 5, 175, 181, 43, 226, 255, 11, 218, 242, 198, 187, 199, 253, 93, 203, 174, 60, 7, 222, 242, 191, 35, 95, 241, 247, 72, 206, 4, 68, 221, 182, 65, 58, 186, 160, 180, 4, 80, 119, 127, 91, 32, 20, 150, 46, 189, 252, 224, 182, 169, 35, 231, 59, 10, 168, 191, 221, 213, 30, 125, 199, 213, 120, 1, 140, 63, 249, 89, 219, 99, 224, 199, 127, 245, 11, 142, 217, 151, 246, 208, 64, 226, 203, 181, 65, 0, 31, 73, 117, 20, 71, 218, 215, 19, 96, 52, 34, 233, 233, 226, 101, 50, 222, 69, 10, 30, 1, 36, 45, 97, 197, 201, 134, 84, 167, 112, 183, 183, 84, 227, 56, 157, 81, 0, 95, 39, 64, 221, 27, 62, 127, 242, 224, 108, 241, 250, 79, 69, 34, 162, 201, 71, 187, 245, 254, 95, 63, 240, 120, 73, 96, 241, 174, 238, 121, 115, 86, 167, 193, 56, 10, 210, 53, 222, 97, 207, 190, 251, 251, 32, 225, 246, 31, 55, 13, 28, 238, 19, 216, 233, 26, 159, 80, 98, 7, 209, 188, 61, 54, 104, 113, 170, 27, 233, 135, 90, 105, 213, 50, 64, 224, 225, 105, 177, 241, 218, 245, 127, 158, 152, 255, 93, 205, 20, 154, 189, 16, 237, 242, 41, 245, 138, 251, 205, 99, 251, 214, 57, 104, 188, 139, 205, 176, 73, 47, 37, 222, 29, 34, 193, 255, 82, 163, 150, 93, 28, 43, 70, 21, 24, 15, 191, 199, 105, 242, 70, 170, 167, 226, 201, 227, 165, 232, 98, 242, 104, 231, 187, 15, 148, 15, 35, 44, 24, 163, 57, 147, 177, 162, 26, 195, 110, 60, 31, 118, 16, 254, 68, 102, 223, 187, 59, 185, 122, 81, 255, 18, 198, 62, 26, 201, 163, 175, 188, 27, 221, 44, 213, 103, 41, 57, 23, 178, 214, 127, 86, 168, 30, 250, 249, 31, 188, 200, 215, 76, 32, 210, 209, 200, 93, 59, 217, 59, 15, 38, 195, 27, 78, 178, 228, 206, 42, 253, 244, 34, 69, 206, 194, 0, 25, 32, 5, 156, 64, 127, 250, 55, 246, 0, 232, 11, 236, 15, 219, 37, 181, 162, 91, 4, 228, 54, 52, 242, 15, 75, 211, 197, 3, 243, 211, 243, 15, 16, 163, 2, 190, 57, 127, 2, 230, 178, 33, 107, 245, 189, 240, 245, 224, 232, 44, 149, 89, 83, 10, 44, 213, 247, 113, 176, 84, 164, 109, 224, 78, 56, 240, 33, 219, 138, 151, 11, 186, 196, 68, 172, 151, 237, 251, 48, 1, 0, 150, 56, 178, 237, 109, 52, 195, 212, 13, 5, 12, 82, 235, 158, 201, 60, 42, 118, 51, 72, 206, 211, 240, 195, 183, 218, 62, 177, 119, 35, 108, 105, 231, 248, 101, 201, 36, 172, 40, 183, 180, 106, 162, 46, 173, 3, 194, 187, 93, 59, 88, 54, 70, 229, 23, 11, 187, 110, 234, 70, 168, 27, 58, 144, 16, 189, 56, 80, 102, 86, 207, 190, 54, 83, 221, 127, 187, 175, 220, 44, 11, 50, 248, 127, 189, 17, 249, 225, 183, 193, 7, 26, 185, 4, 108, 60, 38, 32, 24, 29, 212, 1, 33, 109, 217, 176, 67, 93, 216, 252, 215, 38, 102, 11, 26, 248, 137, 170, 88, 204, 210, 13, 192, 106, 59, 1, 211, 32, 225, 221, 13, 214, 79, 60, 180, 218, 41, 79, 58, 30, 35, 170, 155, 6, 75, 77, 212, 56, 251, 127, 35, 230, 227, 77, 214, 68, 246, 20, 244, 197, 61, 7, 254, 177, 249, 237, 57, 60, 6, 221, 95, 212, 22, 253, 47, 90, 218, 28, 102, 126, 88, 8, 180, 156, 25, 167, 2, 60, 189, 207, 212, 62, 20, 35, 28, 192, 217, 35, 48, 124, 203, 2, 44, 203, 64, 108, 19, 18, 149, 161, 95, 202, 55, 230, 248, 203, 233, 60, 127, 81, 82, 204, 125, 181, 182, 60, 154, 93, 188, 170, 167, 206, 177, 185, 144, 64, 5, 238, 80, 6, 78, 10, 157, 86, 48, 194, 68, 22, 21, 18, 252, 90, 158, 10, 79, 85, 3, 44, 212, 92, 61, 166, 79, 255, 133, 254, 150, 93, 212, 7, 84, 31, 211, 48, 8, 255, 19, 25, 234, 7, 76, 52, 75, 87, 127, 158, 76, 44, 223, 229, 211, 28, 23, 20, 177, 5, 162, 214, 239, 234, 21, 81, 189, 31, 201, 223, 203, 37, 78, 228, 55, 89, 45, 60, 234, 12, 250, 232, 173, 248, 20, 214, 218, 51, 60, 52, 13, 54, 218, 254, 253, 237, 198, 9, 194, 234, 198, 220, 28, 33, 214, 94, 201, 53, 11, 238, 32, 234, 129, 246, 18, 3, 75, 169, 193, 205, 12, 176, 207, 236, 201, 208, 48, 12, 42, 225, 161, 34, 218, 240, 205, 71, 60, 29, 169, 9, 249, 214, 70, 5, 55, 76, 207, 229, 75, 94, 28, 3, 158, 6, 91, 230, 202, 42, 225, 192, 189, 14, 167, 252, 37, 243, 97, 144, 90, 24, 21, 166, 152, 23, 93, 179, 169, 167, 61, 35, 40, 6, 129, 50, 20, 106, 243, 10, 65, 222, 253, 62, 83, 84, 12, 47, 181, 74, 21, 122, 229, 132, 218, 3, 233, 243, 154, 6, 30, 223, 234, 197, 193, 10, 185, 66, 136, 94, 179, 228, 130, 226, 203, 53, 192, 123, 1, 181, 194, 63, 127, 58, 60, 80, 209, 213, 31, 0, 103, 4, 195, 210, 183, 226, 203, 206, 231, 188, 73, 236, 195, 204, 159, 234, 10, 68, 63, 82, 15, 233, 33, 208, 37, 31, 86, 26, 167, 182, 198, 33, 199, 191, 214, 65, 205, 36, 189, 177, 0, 70, 255, 102, 180, 203, 176, 102, 65, 249, 170, 43, 246, 87, 44, 197, 47, 202, 39, 82, 195, 205, 175, 139, 49, 61, 226, 210, 243, 151, 35, 129, 57, 41, 98, 237, 80, 31, 177, 236, 247, 233, 176, 164, 235, 196, 246, 218, 30, 24, 250, 252, 227, 38, 188, 31, 7, 20, 176, 214, 77, 41, 3, 245, 20, 232, 176, 10, 104, 243, 30, 16, 19, 240, 14, 230, 32, 45, 58, 28, 71, 237, 164, 200, 95, 69, 73, 215, 230, 252, 61, 229, 127, 44, 68, 52, 228, 173, 218, 83, 161, 25, 160, 209, 17, 1, 207, 220, 204, 185, 164, 57, 80, 206, 229, 212, 112, 48, 70, 0, 75, 7, 72, 147, 237, 131, 27, 32, 252, 187, 76, 19, 45, 173, 51, 201, 242, 109, 202, 246, 67, 36, 213, 207, 82, 35, 202, 55, 31, 112, 83, 25, 54, 226, 102, 213, 42, 245, 241, 73, 79, 151, 84, 63, 198, 207, 233, 21, 242, 235, 192, 37, 246, 163, 51, 98, 226, 222, 161, 197, 254, 27, 43, 50, 26, 97, 232, 78, 228, 219, 127, 235, 98, 198, 168, 195, 239, 149, 7, 219, 160, 193, 255, 240, 15, 248, 188, 52, 1, 154, 103, 253, 6, 38, 178, 244, 230, 80, 244, 61, 169, 40, 186, 199, 223, 209, 26, 43, 161, 2, 42, 69, 26, 84, 101, 22, 73, 161, 0, 129, 180, 178, 243, 187, 38, 207, 100, 65, 84, 1, 53, 154, 88, 13, 77, 23, 140, 67, 36, 235, 181, 44, 21, 83, 63, 68, 115, 248, 206, 163, 241, 8, 192, 24, 74, 246, 28, 20, 184, 208, 24, 254, 5, 111, 203, 219, 218, 166, 247, 46, 29, 185, 177, 251, 213, 21, 204, 201, 41, 17, 27, 42, 123, 83, 188, 61, 129, 207, 67, 219, 33, 61, 88, 242, 39, 57, 231, 134, 167, 43, 183, 13, 179, 33, 62, 169, 79, 101, 190, 106, 181, 247, 191, 182, 208, 129, 223, 21, 17, 189, 229, 22, 139, 215, 38, 196, 161, 253, 179, 156, 97, 23, 209, 180, 243, 191, 235, 182, 32, 100, 157, 191, 34, 130, 239, 244, 2, 206, 94, 155, 5, 249, 66, 181, 28, 44, 189, 232, 217, 22, 22, 91, 32, 65, 45, 237, 56, 41, 156, 179, 186, 19, 248, 234, 53, 42, 246, 65, 244, 59, 34, 95, 106, 157, 58, 16, 165, 245, 80, 33, 229, 7, 199, 242, 179, 252, 29, 228, 9, 8, 18, 254, 46, 198, 185, 198, 52, 56, 175, 200, 14, 86, 226, 255, 172, 29, 60, 155, 209, 28, 224, 207, 28, 35, 5, 14, 159, 72, 208, 26, 245, 40, 237, 129, 65, 233, 245, 80, 209, 183, 65, 53, 45, 52, 115, 224, 112, 165, 56, 97, 21, 8, 27, 195, 238, 217, 198, 244, 202, 53, 80, 47, 51, 14, 22, 79, 7, 73, 229, 45, 251, 27, 29, 195, 31, 96, 203, 73, 139, 147, 236, 249, 176, 202, 15, 196, 129, 188, 48, 67, 66, 16, 77, 38, 3, 73, 235, 247, 240, 108, 250, 230, 195, 148, 250, 48, 232, 31, 251, 172, 157, 90, 232, 58, 188, 60, 84, 171, 89, 194, 162, 185, 35, 230, 135, 164, 235, 43, 107, 40, 74, 45, 102, 56, 35, 5, 70, 220, 21, 207, 63, 69, 85, 129, 183, 66, 220, 110, 190, 178, 85, 69, 75, 57, 206, 67, 250, 164, 209, 6, 154, 178, 154, 214, 223, 165, 224, 205, 175, 38, 232, 176, 31, 214, 184, 173, 104, 239, 200, 41, 9, 223, 223, 228, 68, 89, 159, 87, 205, 61, 208, 179, 199, 69, 85, 227, 145, 185, 19, 159, 77, 58, 212, 230, 50, 246, 251, 196, 55, 197, 34, 231, 222, 109, 30, 11, 71, 190, 38, 194, 88, 13, 230, 26, 27, 129, 199, 166, 36, 217, 60, 157, 96, 54, 118, 233, 190, 245, 82, 24, 92, 168, 9, 48, 160, 168, 160, 211, 9, 194, 46, 229, 54, 86, 151, 86, 212, 247, 57, 217, 59, 65, 47, 20, 45, 49, 138, 222, 139, 168, 55, 80, 58, 127, 52, 211, 79, 240, 176, 79, 97, 102, 151, 68, 37, 69, 207, 222, 218, 64, 200, 16, 62, 252, 29, 248, 221, 253, 83, 19, 36, 203, 205, 4, 87, 160, 9, 50, 224, 21, 104, 249, 74, 53, 174, 67, 22, 208, 120, 52, 76, 185, 230, 166, 252, 185, 82, 85, 108, 248, 42, 217, 234, 23, 242, 22, 201, 199, 191, 104, 12, 213, 71, 72, 209, 64, 152, 1, 152, 7, 115, 216, 179, 30, 13, 84, 177, 248, 127, 214, 48, 65, 41, 50, 117, 100, 35, 169, 164, 13, 190, 215, 127, 68, 213, 23, 254, 198, 251, 82, 95, 50, 15, 65, 1, 29, 255, 209, 213, 207, 243, 26, 227, 105, 189, 232, 108, 214, 26, 165, 241, 60, 219, 210, 247, 41, 35, 88, 9, 39, 244, 74, 87, 250, 239, 71, 17, 42, 235, 91, 200, 97, 177, 179, 137, 4, 106, 183, 129, 178, 207, 107, 8, 247, 52, 70, 26, 28, 206, 14, 171, 193, 249, 101, 110, 84, 168, 244, 197, 202, 234, 45, 69, 231, 34, 212, 179, 19, 189, 86, 20, 27, 59, 69, 216, 82, 210, 70, 222, 203, 224, 68, 167, 44, 72, 229, 184, 239, 151, 72, 59, 94, 168, 202, 33, 53, 24, 22, 231, 85, 61, 241, 223, 221, 42, 3, 178, 58, 110, 203, 0, 178, 196, 54, 208, 175, 10, 13, 47, 55, 202, 99, 197, 202, 56, 77, 27, 47, 110, 3, 199, 211, 23, 34, 21, 150, 199, 183, 214, 212, 4, 63, 127, 204, 88, 198, 65, 192, 19, 205, 239, 13, 42, 229, 71, 216, 92, 62, 241, 243, 204, 91, 203, 11, 255, 22, 39, 212, 218, 37, 21, 40, 251, 185, 142, 239, 239, 253, 218, 82, 225, 82, 4, 167, 219, 46, 75, 246, 24, 51, 182, 48, 60, 46, 43, 62, 226, 21, 149, 51, 176, 48, 5, 227, 59, 228, 84, 70, 209, 85, 209, 238, 129, 8, 95, 193, 151, 214, 250, 228, 186, 236, 25, 246, 252, 21, 49, 194, 186, 60, 142, 200, 248, 125, 218, 9, 220, 42, 201, 42, 102, 113, 188, 197, 87, 156, 70, 90, 45, 87, 218, 95, 213, 229, 74, 120, 46, 52, 1, 89, 201, 22, 164, 171, 11, 213, 129, 207, 173, 61, 202, 199, 7, 210, 49, 20, 227, 86, 45, 211, 59, 94, 46, 213, 0, 71, 182, 153, 88, 192, 187, 174, 96, 41, 55, 214, 179, 108, 79, 240, 182, 180, 233, 82, 149, 223, 127, 27, 180, 2, 53, 78, 104, 211, 6, 203, 206, 68, 23, 204, 47, 60, 159, 194, 167, 102, 32, 232, 85, 70, 166, 16, 25, 169, 38, 214, 241, 208, 33, 31, 63, 32, 162, 95, 235, 251, 28, 24, 196, 215, 218, 17, 36, 87, 224, 110, 194, 174, 228, 158, 181, 55, 66, 129, 217, 27, 220, 84, 44, 202, 99, 232, 44, 186, 45, 99, 110, 189, 6, 71, 27, 227, 27, 35, 84, 253, 227, 105, 176, 30, 27, 78, 161, 53, 211, 27, 115, 10, 88, 32, 149, 45, 88, 207, 67, 13, 12, 202, 40, 234, 43, 232, 218, 185, 29, 178, 73, 206, 217, 51, 212, 226, 2, 167, 190, 250, 5, 80, 57, 61, 43, 175, 9, 250, 158, 92, 217, 55, 163, 157, 243, 180, 13, 203, 196, 67, 226, 85, 183, 17, 69, 37, 76, 31, 247, 36, 44, 156, 64, 98, 243, 234, 55, 1, 76, 224, 53, 56, 196, 12, 70, 235, 201, 209, 129, 184, 47, 92, 176, 162, 69, 48, 63, 192, 55, 43, 255, 89, 219, 165, 40, 14, 226, 11, 184, 60, 237, 220, 208, 75, 205, 229, 39, 48, 67, 30, 14, 234, 3, 194, 82, 75, 170, 167, 184, 199, 64, 124, 96, 251, 137, 181, 126, 161, 113, 49, 25, 179, 204, 36, 156, 48, 219, 87, 127, 43, 25, 249, 250, 23, 19, 203, 27, 63, 192, 167, 127, 62, 234, 74, 77, 220, 171, 246, 241, 55, 8, 101, 147, 246, 181, 44, 113, 197, 30, 42, 236, 30, 13, 254, 222, 27, 216, 63, 45, 39, 43, 189, 92, 249, 50, 58, 241, 186, 34, 0, 245, 158, 30, 16, 38, 25, 187, 59, 99, 192, 115, 48, 11, 214, 22, 211, 13, 217, 235, 214, 247, 204, 11, 238, 125, 99, 88, 145, 59, 127, 9, 163, 36, 202, 197, 243, 94, 21, 41, 81, 245, 161, 217, 213, 114, 247, 140, 19, 179, 32, 185, 89, 81, 185, 90, 30, 96, 150, 57, 101, 225, 225, 222, 223, 196, 3, 39, 29, 198, 219, 154, 143, 235, 252, 158, 210, 252, 161, 1, 60, 225, 58, 230, 194, 29, 235, 68, 34, 211, 1, 79, 61, 90, 8, 207, 1, 187, 2, 70, 234, 164, 33, 205, 186, 235, 40, 7, 7, 127, 34, 6, 111, 58, 85, 211, 183, 85, 177, 206, 162, 194, 32, 0, 203, 188, 21, 172, 59, 70, 212, 233, 240, 80, 3, 15, 164, 91, 22, 19, 49, 76, 61, 179, 83, 191, 43, 194, 41, 170, 140, 1, 244, 186, 93, 194, 19, 54, 214, 3, 79, 243, 22, 2, 180, 248, 20, 221, 63, 249, 207, 63, 129, 20, 201, 36, 218, 5, 235, 30, 185, 99, 13, 201, 166, 21, 255, 47, 175, 226, 93, 14, 214, 251, 233, 174, 223, 78, 237, 193, 227, 179, 232, 25, 34, 18, 50, 227, 8, 43, 54, 207, 197, 217, 0, 180, 13, 22, 203, 91, 178, 22, 36, 241, 98, 198, 50, 174, 33, 67, 200, 234, 230, 52, 192, 232, 249, 48, 223, 101, 247, 227, 91, 247, 69, 26, 148, 81, 172, 56, 79, 129, 177, 62, 20, 58, 82, 156, 180, 222, 42, 188, 205, 151, 85, 17, 222, 16, 161, 15, 186, 6, 30, 46, 67, 196, 41, 58, 229, 244, 7, 17, 116, 114, 242, 155, 40, 45, 21, 0, 143, 216, 240, 30, 168, 48, 56, 61, 161, 27, 147, 108, 92, 76, 216, 2, 251, 84, 19, 166, 11, 190, 247, 118, 66, 145, 219, 222, 62, 227, 240, 211, 95, 148, 203, 207, 190, 166, 51, 203, 42, 27, 79, 13, 101, 161, 254, 81, 115, 222, 16, 205, 32, 74, 127, 176, 197, 150, 212, 232, 124, 84, 37, 63, 41, 0, 43, 30, 58, 177, 20, 255, 207, 68, 234, 46, 11, 9, 17, 28, 72, 177, 214, 38, 50, 200, 184, 112, 50, 127, 57, 39, 158, 47, 239, 64, 68, 235, 88, 196, 252, 210, 45, 235, 203, 156, 188, 209, 176, 23, 94, 19, 174, 21, 44, 57, 57, 32, 214, 127, 1, 28, 38, 217, 45, 84, 151, 23, 204, 9, 207, 46, 29, 204, 21, 249, 99, 31, 245, 218, 45, 33, 162, 31, 54, 221, 21, 26, 31, 179, 212, 109, 231, 94, 95, 5, 180, 218, 55, 12, 209, 154, 194, 52, 119, 44, 61, 181, 66, 80, 9, 193, 80, 224, 4, 250, 50, 63, 137, 57, 23, 211, 151, 215, 159, 6, 13, 147, 47, 145, 52, 122, 66, 180, 37, 63, 247, 144, 46, 165, 91, 230, 221, 98, 1, 19, 33, 19, 84, 207, 239, 119, 221, 8, 44, 168, 241, 111, 189, 178, 101, 129, 208, 11, 50, 49, 67, 163, 255, 249, 74, 155, 10, 19, 240, 174, 45, 5, 210, 16, 252, 95, 94, 16, 57, 45, 205, 229, 40, 214, 224, 65, 156, 220, 10, 250, 24, 40, 44, 88, 207, 92, 163, 221, 2, 5, 41, 30, 57, 52, 244, 22, 162, 84, 106, 45, 93, 44, 238, 244, 60, 203, 182, 220, 97, 55, 66, 127, 233, 7, 94, 224, 23, 177, 62, 51, 229, 97, 82, 251, 231, 81, 168, 186, 118, 62, 172, 242, 40, 211, 56, 231, 99, 203, 80, 228, 187, 162, 190, 143, 166, 65, 225, 185, 16, 196, 241, 86, 182, 7, 129, 65, 50, 82, 174, 118, 21, 148, 155, 41, 56, 52, 204, 94, 27, 181, 230, 31, 93, 67, 69, 30, 157, 63, 82, 254, 16, 57, 67, 229, 61, 10, 244, 192, 62, 36, 224, 39, 240, 51, 22, 201, 153, 21, 190, 55, 53, 30, 76, 4, 189, 179, 54, 234, 77, 90, 0, 163, 212, 236, 39, 129, 31, 249, 67, 14, 227, 51, 196, 77, 238, 214, 25, 203, 37, 39, 65, 32, 178, 72, 249, 173, 181, 56, 160, 208, 54, 190, 166, 101, 94, 241, 192, 235, 62, 88, 150, 6, 110, 52, 149, 166, 91, 42, 155, 37, 252, 212, 222, 72, 213, 12, 197, 111, 191, 237, 219, 121, 207, 30, 77, 144, 253, 72, 188, 52, 216, 222, 115, 193, 191, 157, 121, 26, 255, 234, 244, 184, 98, 68, 252, 209, 251, 187, 115, 184, 200, 114, 57, 212, 51, 184, 74, 139, 225, 197, 69, 241, 253, 73, 103, 13, 3, 80, 170, 163, 76, 25, 228, 72, 129, 159, 50, 62, 245, 255, 255, 4, 0, 0, 0, 0, 1, 0, 0, 74, 254, 255, 255, 138, 0, 0, 0, 193, 254, 255, 255, 85, 254, 255, 255, 28, 255, 255, 255, 50, 250, 255, 255, 27, 252, 255, 255, 72, 3, 0, 0, 143, 250, 255, 255, 134, 251, 255, 255, 74, 1, 0, 0, 177, 251, 255, 255, 204, 250, 255, 255, 122, 253, 255, 255, 10, 1, 0, 0, 189, 255, 255, 255, 194, 253, 255, 255, 42, 251, 255, 255, 0, 249, 255, 255, 12, 253, 255, 255, 221, 2, 0, 0, 94, 254, 255, 255, 212, 250, 255, 255, 149, 0, 0, 0, 227, 252, 255, 255, 179, 3, 0, 0, 131, 0, 0, 0, 99, 255, 255, 255, 88, 253, 255, 255, 107, 0, 0, 0, 167, 251, 255, 255, 75, 0, 0, 0, 186, 2, 0, 0, 63, 254, 255, 255, 162, 254, 255, 255, 49, 252, 255, 255, 29, 0, 0, 0, 156, 1, 0, 0, 105, 250, 255, 255, 20, 1, 0, 0, 191, 252, 255, 255, 58, 250, 255, 255, 129, 254, 255, 255, 32, 249, 255, 255, 178, 2, 0, 0, 11, 250, 255, 255, 225, 250, 255, 255, 59, 0, 0, 0, 215, 247, 255, 255, 40, 252, 255, 255, 110, 254, 255, 255, 116, 252, 255, 255, 105, 249, 255, 255, 70, 250, 255, 255, 77, 4, 0, 0, 15, 254, 255, 255, 147, 250, 255, 255, 141, 247, 255, 255, 70, 255, 255, 255, 39, 255, 255, 255, 30, 252, 255, 255, 204, 248, 255, 255, 219, 255, 255, 255, 64, 254, 255, 255, 74, 246, 255, 255, 4, 0, 0, 0, 64, 0, 0, 0, 41, 58, 65, 56, 55, 28, 85, 56, 8, 68, 76, 117, 96, 31, 59, 35, 28, 75, 83, 59, 55, 12, 65, 66, 114, 80, 24, 85, 65, 247, 110, 51, 82, 72, 41, 110, 56, 55, 45, 45, 39, 42, 64, 81, 22, 50, 22, 64, 127, 32, 68, 103, 91, 56, 62, 76, 112, 58, 63, 59, 93, 73, 27, 27, 150, 246, 255, 255, 4, 0, 0, 0, 64, 0, 0, 0, 251, 232, 254, 212, 212, 185, 4, 176, 230, 227, 223, 242, 248, 17, 210, 241, 13, 228, 37, 198, 139, 234, 10, 234, 1, 176, 234, 194, 213, 244, 37, 198, 149, 166, 219, 15, 252, 221, 248, 209, 255, 48, 2, 34, 210, 76, 207, 164, 56, 249, 210, 217, 8, 199, 128, 9, 9, 17, 192, 231, 247, 19, 227, 237, 226, 246, 255, 255, 4, 0, 0, 0, 0, 8, 0, 0, 87, 140, 82, 216, 89, 95, 66, 240, 82, 165, 106, 18, 243, 0, 49, 214, 101, 188, 110, 240, 33, 178, 251, 224, 253, 233, 55, 127, 18, 9, 46, 83, 188, 231, 179, 46, 52, 197, 108, 242, 192, 10, 147, 44, 59, 3, 239, 40, 190, 53, 84, 171, 171, 154, 99, 122, 208, 4, 46, 190, 20, 83, 248, 155, 22, 200, 60, 241, 243, 201, 39, 76, 199, 185, 19, 45, 22, 32, 186, 38, 71, 240, 45, 32, 222, 241, 166, 173, 125, 255, 240, 36, 208, 21, 117, 197, 137, 191, 209, 208, 46, 194, 243, 71, 32, 55, 253, 59, 27, 59, 195, 225, 112, 97, 142, 213, 189, 194, 243, 71, 127, 220, 220, 197, 1, 210, 86, 217, 53, 72, 204, 62, 19, 39, 70, 99, 213, 168, 69, 149, 214, 213, 243, 53, 173, 255, 164, 66, 129, 63, 2, 71, 196, 70, 255, 227, 214, 255, 4, 255, 38, 237, 34, 216, 126, 23, 15, 187, 39, 39, 74, 53, 177, 14, 64, 203, 48, 148, 40, 66, 57, 24, 143, 207, 19, 19, 112, 189, 214, 172, 215, 76, 165, 243, 11, 250, 190, 148, 108, 40, 26, 25, 207, 129, 104, 219, 35, 60, 30, 236, 6, 199, 242, 13, 111, 37, 223, 209, 33, 153, 8, 254, 228, 60, 68, 204, 46, 171, 56, 80, 28, 58, 3, 21, 4, 244, 28, 60, 230, 178, 206, 178, 9, 64, 22, 200, 0, 178, 187, 47, 233, 32, 90, 5, 176, 219, 239, 244, 42, 99, 200, 34, 100, 164, 72, 28, 222, 236, 173, 154, 223, 238, 229, 33, 42, 58, 4, 24, 231, 255, 12, 228, 186, 204, 232, 78, 247, 175, 56, 241, 91, 160, 218, 32, 193, 50, 49, 166, 55, 232, 10, 244, 57, 129, 158, 181, 90, 169, 82, 248, 194, 55, 153, 219, 60, 114, 215, 255, 7, 64, 27, 32, 213, 62, 91, 46, 211, 253, 22, 74, 90, 119, 224, 83, 245, 243, 252, 171, 33, 62, 4, 91, 184, 177, 127, 173, 244, 74, 236, 191, 82, 255, 211, 213, 166, 45, 65, 12, 38, 23, 17, 81, 33, 199, 73, 37, 2, 190, 44, 105, 165, 3, 38, 158, 212, 228, 107, 66, 177, 181, 247, 53, 71, 187, 221, 240, 37, 211, 46, 225, 19, 254, 132, 143, 81, 93, 162, 34, 217, 140, 44, 146, 183, 41, 75, 37, 189, 15, 124, 75, 188, 126, 105, 43, 107, 133, 255, 230, 24, 239, 223, 143, 122, 107, 203, 4, 214, 62, 129, 39, 7, 2, 120, 200, 153, 197, 200, 49, 85, 68, 55, 74, 40, 75, 36, 99, 67, 9, 21, 37, 52, 8, 240, 209, 7, 228, 169, 176, 73, 127, 224, 228, 6, 228, 43, 34, 240, 228, 238, 163, 32, 220, 45, 248, 41, 41, 50, 245, 95, 215, 2, 15, 206, 80, 210, 255, 76, 1, 218, 1, 0, 38, 4, 37, 16, 4, 105, 27, 165, 189, 172, 234, 1, 39, 253, 20, 194, 253, 223, 47, 26, 43, 248, 30, 114, 254, 192, 251, 144, 30, 228, 191, 236, 92, 185, 180, 176, 32, 40, 251, 233, 157, 224, 0, 14, 48, 60, 78, 196, 2, 75, 15, 58, 246, 35, 231, 17, 98, 18, 44, 56, 35, 151, 0, 15, 24, 29, 235, 205, 85, 22, 201, 39, 146, 129, 170, 6, 100, 58, 163, 214, 180, 201, 240, 172, 201, 161, 227, 36, 224, 47, 191, 247, 39, 77, 206, 226, 0, 64, 224, 118, 255, 38, 222, 25, 242, 194, 228, 69, 101, 28, 239, 19, 217, 217, 229, 214, 247, 207, 40, 99, 41, 226, 112, 185, 92, 10, 41, 0, 231, 53, 190, 253, 129, 13, 66, 18, 244, 77, 225, 35, 173, 11, 61, 67, 209, 84, 247, 187, 29, 219, 43, 29, 210, 34, 26, 253, 78, 85, 253, 216, 129, 240, 171, 206, 47, 45, 18, 5, 49, 206, 78, 252, 121, 44, 42, 42, 255, 17, 11, 192, 219, 10, 220, 66, 193, 248, 12, 203, 43, 202, 49, 104, 160, 225, 10, 202, 168, 6, 239, 37, 187, 7, 198, 50, 163, 13, 95, 213, 47, 248, 46, 244, 28, 183, 46, 163, 253, 221, 254, 38, 65, 4, 6, 16, 246, 121, 82, 91, 238, 7, 190, 49, 217, 54, 212, 235, 227, 241, 88, 2, 140, 236, 7, 214, 213, 76, 150, 222, 30, 24, 54, 180, 54, 194, 240, 239, 200, 42, 12, 212, 246, 4, 147, 44, 100, 57, 219, 129, 177, 26, 202, 239, 219, 204, 27, 213, 96, 238, 1, 98, 223, 46, 32, 45, 31, 188, 181, 238, 9, 216, 214, 8, 220, 34, 213, 38, 183, 20, 129, 174, 220, 94, 73, 23, 77, 86, 149, 112, 248, 247, 200, 37, 121, 205, 215, 220, 4, 1, 6, 6, 46, 236, 71, 222, 204, 116, 3, 224, 176, 214, 16, 108, 201, 64, 217, 153, 0, 241, 184, 158, 29, 246, 197, 9, 70, 197, 165, 190, 108, 48, 134, 72, 115, 164, 7, 91, 26, 160, 204, 32, 197, 64, 134, 11, 163, 243, 8, 200, 85, 41, 53, 58, 251, 140, 199, 51, 29, 199, 251, 171, 221, 224, 139, 247, 29, 253, 207, 62, 75, 110, 32, 148, 176, 188, 176, 1, 86, 127, 12, 166, 204, 132, 162, 153, 249, 75, 19, 91, 32, 16, 213, 171, 54, 182, 218, 229, 17, 20, 23, 67, 245, 13, 235, 208, 39, 222, 53, 158, 157, 88, 168, 84, 31, 63, 236, 125, 178, 150, 229, 191, 9, 243, 86, 39, 34, 78, 87, 8, 6, 13, 74, 186, 33, 127, 48, 177, 13, 183, 200, 218, 33, 72, 205, 192, 221, 212, 17, 56, 30, 201, 54, 39, 204, 4, 174, 222, 219, 46, 133, 96, 118, 39, 236, 20, 47, 76, 2, 70, 152, 11, 89, 42, 155, 37, 224, 177, 242, 23, 232, 103, 59, 185, 167, 15, 70, 142, 197, 22, 252, 241, 19, 200, 108, 53, 19, 48, 238, 127, 5, 202, 208, 34, 189, 60, 49, 103, 212, 184, 8, 28, 99, 24, 42, 100, 183, 206, 216, 51, 4, 53, 168, 51, 56, 244, 63, 164, 182, 10, 202, 98, 171, 27, 191, 244, 113, 213, 32, 46, 252, 205, 243, 171, 193, 186, 50, 196, 166, 252, 181, 206, 72, 234, 169, 102, 97, 166, 158, 99, 4, 17, 215, 97, 14, 252, 9, 248, 97, 73, 78, 57, 196, 105, 129, 4, 109, 103, 20, 208, 165, 21, 174, 1, 221, 43, 208, 212, 14, 96, 65, 2, 50, 22, 254, 210, 246, 39, 159, 3, 104, 43, 236, 121, 129, 46, 103, 32, 44, 64, 73, 186, 99, 240, 18, 210, 13, 205, 236, 216, 48, 184, 4, 62, 74, 61, 35, 114, 115, 226, 12, 181, 66, 88, 241, 228, 21, 46, 168, 3, 99, 35, 87, 193, 24, 223, 20, 28, 175, 47, 206, 237, 118, 186, 205, 14, 175, 117, 196, 51, 51, 226, 24, 240, 86, 15, 127, 11, 69, 235, 167, 86, 242, 3, 180, 194, 61, 3, 19, 74, 63, 11, 205, 201, 238, 75, 214, 16, 77, 187, 244, 186, 221, 207, 28, 249, 218, 252, 52, 194, 70, 225, 52, 238, 221, 0, 245, 33, 13, 40, 57, 61, 166, 182, 30, 245, 70, 206, 173, 89, 194, 213, 174, 197, 12, 25, 185, 76, 26, 73, 9, 164, 192, 188, 201, 148, 175, 198, 245, 84, 231, 209, 202, 239, 188, 11, 248, 182, 63, 55, 246, 244, 205, 213, 0, 129, 198, 33, 32, 237, 157, 190, 33, 136, 166, 29, 12, 65, 36, 35, 233, 242, 36, 79, 1, 22, 204, 246, 131, 66, 117, 175, 147, 57, 212, 155, 144, 47, 201, 143, 219, 70, 156, 174, 253, 158, 30, 201, 18, 162, 203, 146, 32, 213, 227, 27, 144, 19, 12, 21, 51, 149, 151, 210, 66, 97, 199, 15, 173, 178, 48, 200, 220, 242, 252, 98, 176, 129, 169, 164, 91, 253, 26, 81, 38, 12, 31, 201, 182, 199, 66, 48, 6, 190, 0, 55, 127, 175, 74, 208, 68, 74, 27, 50, 197, 41, 240, 237, 218, 112, 178, 2, 229, 36, 29, 8, 215, 184, 221, 152, 54, 41, 242, 9, 17, 53, 64, 233, 22, 69, 76, 238, 36, 10, 101, 239, 246, 35, 238, 232, 9, 85, 173, 198, 204, 1, 86, 247, 206, 159, 64, 227, 77, 221, 155, 20, 163, 243, 173, 26, 243, 54, 89, 115, 83, 5, 176, 36, 247, 191, 231, 94, 116, 40, 76, 79, 9, 11, 250, 36, 21, 89, 142, 27, 220, 127, 120, 167, 69, 40, 166, 232, 25, 240, 87, 50, 131, 255, 241, 249, 219, 81, 246, 130, 216, 197, 200, 246, 210, 219, 229, 19, 24, 51, 205, 69, 192, 177, 223, 236, 44, 25, 36, 41, 167, 91, 33, 40, 79, 35, 237, 222, 26, 164, 64, 49, 127, 220, 38, 228, 215, 35, 228, 219, 222, 76, 175, 85, 21, 89, 75, 37, 242, 220, 205, 113, 235, 25, 63, 26, 161, 237, 37, 225, 16, 13, 11, 147, 208, 177, 18, 47, 2, 194, 156, 208, 66, 173, 7, 58, 54, 150, 177, 211, 155, 166, 205, 249, 163, 107, 88, 19, 207, 169, 173, 205, 174, 7, 25, 25, 120, 165, 28, 78, 186, 139, 193, 2, 64, 36, 168, 66, 129, 83, 98, 227, 248, 47, 233, 96, 182, 11, 54, 172, 155, 250, 226, 106, 252, 58, 212, 18, 51, 132, 6, 207, 25, 95, 159, 7, 17, 157, 88, 246, 242, 1, 95, 218, 59, 0, 57, 35, 22, 37, 65, 68, 170, 189, 243, 212, 189, 22, 239, 15, 170, 215, 209, 82, 209, 254, 81, 129, 230, 239, 229, 166, 28, 218, 199, 214, 38, 77, 239, 194, 193, 196, 195, 207, 3, 182, 4, 197, 234, 225, 88, 78, 241, 176, 32, 84, 19, 107, 207, 43, 17, 95, 69, 200, 251, 61, 46, 190, 35, 83, 27, 99, 76, 3, 170, 9, 21, 70, 26, 106, 5, 18, 35, 218, 218, 24, 209, 43, 206, 102, 254, 90, 232, 178, 158, 232, 101, 143, 163, 244, 230, 29, 60, 8, 17, 221, 20, 184, 100, 19, 111, 193, 129, 43, 155, 13, 107, 238, 155, 205, 22, 21, 43, 64, 84, 43, 182, 217, 23, 212, 36, 3, 28, 230, 162, 35, 2, 138, 99, 96, 210, 172, 193, 171, 253, 0, 182, 174, 131, 227, 216, 165, 15, 88, 192, 65, 164, 68, 63, 153, 223, 203, 228, 97, 11, 73, 9, 182, 55, 200, 84, 191, 231, 83, 91, 50, 129, 28, 7, 50, 61, 88, 235, 56, 5, 232, 62, 149, 200, 112, 33, 35, 168, 52, 186, 219, 83, 211, 174, 11, 127, 185, 73, 220, 39, 90, 181, 104, 242, 204, 65, 36, 236, 120, 186, 255, 206, 48, 16, 102, 160, 49, 33, 200, 213, 30, 45, 209, 159, 86, 81, 249, 15, 56, 229, 229, 197, 70, 103, 146, 56, 239, 9, 73, 29, 51, 233, 228, 11, 192, 98, 80, 83, 225, 22, 51, 190, 146, 140, 112, 185, 44, 50, 209, 222, 67, 79, 84, 21, 35, 187, 167, 32, 22, 210, 75, 126, 182, 29, 18, 129, 251, 81, 222, 55, 117, 171, 226, 4, 127, 17, 196, 94, 240, 71, 125, 55, 14, 242, 229, 214, 184, 52, 41, 238, 43, 203, 248, 183, 166, 34, 93, 27, 27, 174, 47, 225, 30, 216, 80, 82, 215, 224, 175, 221, 239, 195, 14, 127, 150, 78, 59, 54, 175, 154, 50, 197, 228, 149, 46, 193, 102, 35, 21, 233, 37, 45, 89, 24, 162, 0, 179, 60, 217, 42, 66, 47, 9, 2, 173, 66, 37, 196, 233, 217, 108, 67, 3, 201, 180, 6, 231, 217, 12, 215, 153, 82, 170, 236, 193, 202, 216, 41, 54, 228, 217, 29, 230, 12, 244, 130, 46, 96, 195, 45, 179, 16, 58, 221, 232, 159, 78, 171, 238, 59, 75, 192, 201, 55, 211, 49, 127, 211, 197, 163, 227, 70, 42, 234, 98, 195, 186, 195, 51, 42, 165, 60, 4, 60, 112, 101, 255, 162, 221, 201, 222, 86, 114, 152, 176, 63, 132, 13, 63, 29, 238, 254, 255, 255, 4, 0, 0, 0, 128, 0, 0, 0, 230, 8, 0, 0, 45, 4, 0, 0, 37, 13, 0, 0, 97, 20, 0, 0, 253, 8, 0, 0, 39, 7, 0, 0, 153, 9, 0, 0, 177, 9, 0, 0, 99, 8, 0, 0, 61, 10, 0, 0, 170, 11, 0, 0, 164, 3, 0, 0, 232, 7, 0, 0, 142, 7, 0, 0, 74, 11, 0, 0, 107, 3, 0, 0, 30, 251, 255, 255, 217, 254, 255, 255, 255, 5, 0, 0, 37, 6, 0, 0, 239, 253, 255, 255, 66, 12, 0, 0, 41, 6, 0, 0, 126, 11, 0, 0, 239, 8, 0, 0, 36, 254, 255, 255, 222, 11, 0, 0, 210, 6, 0, 0, 157, 4, 0, 0, 61, 13, 0, 0, 13, 9, 0, 0, 86, 8, 0, 0, 122, 255, 255, 255, 4, 0, 0, 0, 32, 0, 0, 0, 80, 52, 188, 204, 215, 74, 85, 50, 47, 186, 234, 216, 84, 93, 91, 69, 108, 23, 168, 161, 154, 40, 193, 206, 138, 227, 70, 25, 109, 137, 97, 127, 166, 255, 255, 255, 4, 0, 0, 0, 4, 0, 0, 0, 154, 254, 255, 255, 182, 255, 255, 255, 4, 0, 0, 0, 12, 0, 0, 0, 255, 255, 255, 255, 50, 0, 0, 0, 64, 0, 0, 0, 206, 255, 255, 255, 4, 0, 0, 0, 12, 0, 0, 0, 255, 255, 255, 255, 100, 0, 0, 0, 64, 0, 0, 0, 230, 255, 255, 255, 4, 0, 0, 0, 12, 0, 0, 0, 255, 255, 255, 255, 200, 0, 0, 0, 32, 0, 0, 0, 0, 0, 6, 0, 8, 0, 4, 0, 6, 0, 0, 0, 4, 0, 0, 0, 4, 0, 0, 0, 1, 0, 0, 0, 16, 193, 255, 255, 20, 193, 255, 255, 15, 0, 0, 0, 77, 76, 73, 82, 32, 67, 111, 110, 118, 101, 114, 116, 101, 100, 46, 0, 1, 0, 0, 0, 20, 0, 0, 0, 0, 0, 14, 0, 24, 0, 20, 0, 16, 0, 12, 0, 8, 0, 4, 0, 14, 0, 0, 0, 20, 0, 0, 0, 28, 0, 0, 0, 24, 5, 0, 0, 28, 5, 0, 0, 32, 5, 0, 0, 4, 0, 0, 0, 109, 97, 105, 110, 0, 0, 0, 0, 22, 0, 0, 0, 208, 4, 0, 0, 112, 4, 0, 0, 12, 4, 0, 0, 216, 3, 0, 0, 164, 3, 0, 0, 124, 3, 0, 0, 64, 3, 0, 0, 252, 2, 0, 0, 180, 2, 0, 0, 128, 2, 0, 0, 76, 2, 0, 0, 36, 2, 0, 0, 244, 1, 0, 0, 176, 1, 0, 0, 104, 1, 0, 0, 52, 1, 0, 0, 0, 1, 0, 0, 216, 0, 0, 0, 164, 0, 0, 0, 96, 0, 0, 0, 40, 0, 0, 0, 4, 0, 0, 0, 210, 252, 255, 255, 12, 0, 0, 0, 16, 0, 0, 0, 8, 0, 0, 0, 1, 0, 0, 0, 48, 0, 0, 0, 1, 0, 0, 0, 47, 0, 0, 0, 18, 252, 255, 255, 20, 0, 0, 0, 0, 0, 0, 8, 16, 0, 0, 0, 20, 0, 0, 0, 7, 0, 0, 0, 252, 193, 255, 255, 1, 0, 0, 0, 47, 0, 0, 0, 3, 0, 0, 0, 46, 0, 0, 0, 6, 0, 0, 0, 5, 0, 0, 0, 70, 252, 255, 255, 28, 0, 0, 0, 0, 0, 0, 8, 28, 0, 0, 0, 32, 0, 0, 0, 7, 0, 0, 0, 0, 0, 6, 0, 8, 0, 7, 0, 6, 0, 0, 0, 0, 0, 0, 1, 1, 0, 0, 0, 46, 0, 0, 0, 3, 0, 0, 0, 45, 0, 0, 0, 8, 0, 0, 0, 7, 0, 0, 0, 134, 252, 255, 255, 20, 0, 0, 0, 0, 0, 0, 27, 16, 0, 0, 0, 20, 0, 0, 0, 6, 0, 0, 0, 112, 194, 255, 255, 1, 0, 0, 0, 45, 0, 0, 0, 2, 0, 0, 0, 44, 0, 0, 0, 1, 0, 0, 0, 150, 253, 255, 255, 12, 0, 0, 0, 16, 0, 0, 0, 5, 0, 0, 0, 1, 0, 0, 0, 44, 0, 0, 0, 2, 0, 0, 0, 43, 0, 0, 0, 4, 0, 0, 0, 218, 252, 255, 255, 20, 0, 0, 0, 0, 0, 0, 11, 16, 0, 0, 0, 20, 0, 0, 0, 4, 0, 0, 0, 196, 194, 255, 255, 1, 0, 0, 0, 43, 0, 0, 0, 2, 0, 0, 0, 42, 0, 0, 0, 9, 0, 0, 0, 10, 253, 255, 255, 20, 0, 0, 0, 0, 0, 0, 21, 16, 0, 0, 0, 20, 0, 0, 0, 3, 0, 0, 0, 244, 194, 255, 255, 1, 0, 0, 0, 42, 0, 0, 0, 2, 0, 0, 0, 41, 0, 0, 0, 10, 0, 0, 0, 58, 253, 255, 255, 20, 0, 0, 0, 0, 0, 0, 1, 32, 0, 0, 0, 36, 0, 0, 0, 2, 0, 0, 0, 140, 253, 255, 255, 0, 0, 0, 1, 1, 0, 0, 0, 1, 0, 0, 0, 0, 0, 0, 1, 1, 0, 0, 0, 41, 0, 0, 0, 3, 0, 0, 0, 40, 0, 0, 0, 12, 0, 0, 0, 11, 0, 0, 0, 126, 253, 255, 255, 20, 0, 0, 0, 0, 0, 0, 2, 28, 0, 0, 0, 32, 0, 0, 0, 1, 0, 0, 0, 112, 253, 255, 255, 1, 0, 0, 0, 2, 0, 0, 0, 2, 0, 0, 0, 1, 0, 0, 0, 40, 0, 0, 0, 3, 0, 0, 0, 39, 0, 0, 0, 14, 0, 0, 0, 13, 0, 0, 0, 98, 253, 255, 255, 16, 0, 0, 0, 0, 0, 0, 52, 12, 0, 0, 0, 16, 0, 0, 0, 164, 195, 255, 255, 1, 0, 0, 0, 39, 0, 0, 0, 2, 0, 0, 0, 38, 0, 0, 0, 1, 0, 0, 0, 202, 254, 255, 255, 12, 0, 0, 0, 16, 0, 0, 0, 5, 0, 0, 0, 1, 0, 0, 0, 38, 0, 0, 0, 2, 0, 0, 0, 37, 0, 0, 0, 3, 0, 0, 0, 14, 254, 255, 255, 20, 0, 0, 0, 0, 0, 0, 11, 16, 0, 0, 0, 20, 0, 0, 0, 4, 0, 0, 0, 248, 195, 255, 255, 1, 0, 0, 0, 37, 0, 0, 0, 2, 0, 0, 0, 36, 0, 0, 0, 15, 0, 0, 0, 62, 254, 255, 255, 20, 0, 0, 0, 0, 0, 0, 21, 16, 0, 0, 0, 20, 0, 0, 0, 3, 0, 0, 0, 40, 196, 255, 255, 1, 0, 0, 0, 36, 0, 0, 0, 2, 0, 0, 0, 35, 0, 0, 0, 16, 0, 0, 0, 110, 254, 255, 255, 20, 0, 0, 0, 0, 0, 0, 1, 32, 0, 0, 0, 36, 0, 0, 0, 2, 0, 0, 0, 192, 254, 255, 255, 0, 0, 0, 1, 1, 0, 0, 0, 1, 0, 0, 0, 0, 0, 0, 1, 1, 0, 0, 0, 35, 0, 0, 0, 3, 0, 0, 0, 34, 0, 0, 0, 18, 0, 0, 0, 17, 0, 0, 0, 178, 254, 255, 255, 20, 0, 0, 0, 0, 0, 0, 2, 28, 0, 0, 0, 32, 0, 0, 0, 1, 0, 0, 0, 164, 254, 255, 255, 1, 0, 0, 0, 2, 0, 0, 0, 2, 0, 0, 0, 1, 0, 0, 0, 34, 0, 0, 0, 3, 0, 0, 0, 33, 0, 0, 0, 20, 0, 0, 0, 19, 0, 0, 0, 150, 254, 255, 255, 16, 0, 0, 0, 0, 0, 0, 52, 12, 0, 0, 0, 16, 0, 0, 0, 216, 196, 255, 255, 1, 0, 0, 0, 33, 0, 0, 0, 2, 0, 0, 0, 32, 0, 0, 0, 1, 0, 0, 0, 0, 0, 10, 0, 16, 0, 12, 0, 8, 0, 4, 0, 10, 0, 0, 0, 12, 0, 0, 0, 16, 0, 0, 0, 5, 0, 0, 0, 1, 0, 0, 0, 32, 0, 0, 0, 2, 0, 0, 0, 31, 0, 0, 0, 2, 0, 0, 0, 78, 255, 255, 255, 20, 0, 0, 0, 0, 0, 0, 11, 16, 0, 0, 0, 20, 0, 0, 0, 4, 0, 0, 0, 56, 197, 255, 255, 1, 0, 0, 0, 31, 0, 0, 0, 2, 0, 0, 0, 30, 0, 0, 0, 21, 0, 0, 0, 126, 255, 255, 255, 20, 0, 0, 0, 0, 0, 0, 21, 16, 0, 0, 0, 20, 0, 0, 0, 3, 0, 0, 0, 104, 197, 255, 255, 1, 0, 0, 0, 30, 0, 0, 0, 2, 0, 0, 0, 29, 0, 0, 0, 22, 0, 0, 0, 174, 255, 255, 255, 32, 0, 0, 0, 0, 0, 0, 1, 44, 0, 0, 0, 48, 0, 0, 0, 2, 0, 0, 0, 12, 0, 20, 0, 19, 0, 12, 0, 8, 0, 7, 0, 12, 0, 0, 0, 0, 0, 0, 1, 1, 0, 0, 0, 1, 0, 0, 0, 0, 0, 0, 1, 1, 0, 0, 0, 29, 0, 0, 0, 3, 0, 0, 0, 28, 0, 0, 0, 24, 0, 0, 0, 23, 0, 0, 0, 0, 0, 14, 0, 24, 0, 20, 0, 16, 0, 12, 0, 11, 0, 4, 0, 14, 0, 0, 0, 32, 0, 0, 0, 0, 0, 0, 2, 40, 0, 0, 0, 44, 0, 0, 0, 1, 0, 0, 0, 12, 0, 16, 0, 0, 0, 12, 0, 8, 0, 4, 0, 12, 0, 0, 0, 1, 0, 0, 0, 1, 0, 0, 0, 1, 0, 0, 0, 1, 0, 0, 0, 28, 0, 0, 0, 3, 0, 0, 0, 27, 0, 0, 0, 26, 0, 0, 0, 25, 0, 0, 0, 0, 0, 14, 0, 20, 0, 0, 0, 16, 0, 12, 0, 11, 0, 4, 0, 14, 0, 0, 0, 16, 0, 0, 0, 0, 0, 0, 52, 12, 0, 0, 0, 16, 0, 0, 0, 80, 198, 255, 255, 1, 0, 0, 0, 27, 0, 0, 0, 2, 0, 0, 0, 0, 0, 0, 0, 1, 0, 0, 0, 1, 0, 0, 0, 48, 0, 0, 0, 1, 0, 0, 0, 0, 0, 0, 0, 49, 0, 0, 0, 188, 57, 0, 0, 100, 57, 0, 0, 12, 57, 0, 0, 204, 56, 0, 0, 140, 56, 0, 0, 40, 56, 0, 0, 196, 55, 0, 0, 240, 53, 0, 0, 20, 52, 0, 0, 176, 51, 0, 0, 76, 51, 0, 0, 248, 47, 0, 0, 148, 44, 0, 0, 64, 41, 0, 0, 196, 37, 0, 0, 96, 37, 0, 0, 252, 36, 0, 0, 168, 33, 0, 0, 68, 30, 0, 0, 112, 28, 0, 0, 136, 26, 0, 0, 40, 26, 0, 0, 196, 25, 0, 0, 240, 23, 0, 0, 12, 22, 0, 0, 144, 21, 0, 0, 8, 21, 0, 0, 104, 20, 0, 0, 188, 19, 0, 0, 160, 18, 0, 0, 132, 17, 0, 0, 56, 16, 0, 0, 240, 14, 0, 0, 80, 14, 0, 0, 156, 13, 0, 0, 120, 12, 0, 0, 84, 11, 0, 0, 248, 9, 0, 0, 168, 8, 0, 0, 8, 8, 0, 0, 84, 7, 0, 0, 48, 6, 0, 0, 12, 5, 0, 0, 176, 3, 0, 0, 96, 2, 0, 0, 208, 1, 0, 0, 28, 1, 0, 0, 128, 0, 0, 0, 4, 0, 0, 0, 30, 199, 255, 255, 0, 0, 0, 1, 24, 0, 0, 0, 32, 0, 0, 0, 60, 0, 0, 0, 49, 0, 0, 0, 0, 0, 0, 9, 80, 0, 0, 0, 2, 0, 0, 0, 255, 255, 255, 255, 1, 0, 0, 0, 4, 199, 255, 255, 8, 0, 0, 0, 16, 0, 0, 0, 1, 0, 0, 0, 128, 255, 255, 255, 255, 255, 255, 255, 1, 0, 0, 0, 0, 0, 128, 59, 27, 0, 0, 0, 83, 116, 97, 116, 101, 102, 117, 108, 80, 97, 114, 116, 105, 116, 105, 111, 110, 101, 100, 67, 97, 108, 108, 95, 49, 58, 48, 0, 2, 0, 0, 0, 1, 0, 0, 0, 1, 0, 0, 0, 150, 199, 255, 255, 0, 0, 0, 1, 24, 0, 0, 0, 32, 0, 0, 0, 60, 0, 0, 0, 48, 0, 0, 0, 0, 0, 0, 9, 112, 0, 0, 0, 2, 0, 0, 0, 255, 255, 255, 255, 1, 0, 0, 0, 124, 199, 255, 255, 8, 0, 0, 0, 16, 0, 0, 0, 1, 0, 0, 0, 234, 255, 255, 255, 255, 255, 255, 255, 1, 0, 0, 0, 88, 246, 16, 61, 56, 0, 0, 0, 115, 101, 113, 117, 101, 110, 116, 105, 97, 108, 95, 49, 47, 100, 101, 110, 115, 101, 95, 49, 95, 50, 47, 77, 97, 116, 77, 117, 108, 59, 115, 101, 113, 117, 101, 110, 116, 105, 97, 108, 95, 49, 47, 100, 101, 110, 115, 101, 95, 49, 95, 50, 47, 65, 100, 100, 0, 0, 0, 0, 2, 0, 0, 0, 1, 0, 0, 0, 1, 0, 0, 0, 46, 200, 255, 255, 0, 0, 0, 1, 24, 0, 0, 0, 32, 0, 0, 0, 60, 0, 0, 0, 47, 0, 0, 0, 0, 0, 0, 9, 136, 0, 0, 0, 2, 0, 0, 0, 255, 255, 255, 255, 32, 0, 0, 0, 20, 200, 255, 255, 8, 0, 0, 0, 16, 0, 0, 0, 1, 0, 0, 0, 128, 255, 255, 255, 255, 255, 255, 255, 1, 0, 0, 0, 137, 63, 16, 60, 82, 0, 0, 0, 115, 101, 113, 117, 101, 110, 116, 105, 97, 108, 95, 49, 47, 100, 101, 110, 115, 101, 95, 49, 47, 77, 97, 116, 77, 117, 108, 59, 115, 101, 113, 117, 101, 110, 116, 105, 97, 108, 95, 49, 47, 100, 101, 110, 115, 101, 95, 49, 47, 82, 101, 108, 117, 59, 115, 101, 113, 117, 101, 110, 116, 105, 97, 108, 95, 49, 47, 100, 101, 110, 115, 101, 95, 49, 47, 66, 105, 97, 115, 65, 100, 100, 0, 0, 2, 0, 0, 0, 1, 0, 0, 0, 32, 0, 0, 0, 222, 200, 255, 255, 0, 0, 0, 1, 24, 0, 0, 0, 32, 0, 0, 0, 60, 0, 0, 0, 46, 0, 0, 0, 0, 0, 0, 9, 100, 0, 0, 0, 2, 0, 0, 0, 255, 255, 255, 255, 64, 0, 0, 0, 196, 200, 255, 255, 8, 0, 0, 0, 16, 0, 0, 0, 1, 0, 0, 0, 188, 255, 255, 255, 255, 255, 255, 255, 1, 0, 0, 0, 59, 27, 56, 60, 44, 0, 0, 0, 115, 101, 113, 117, 101, 110, 116, 105, 97, 108, 95, 49, 47, 103, 108, 111, 98, 97, 108, 95, 97, 118, 101, 114, 97, 103, 101, 95, 112, 111, 111, 108, 105, 110, 103, 49, 100, 95, 49, 47, 77, 101, 97, 110, 0, 0, 0, 0, 2, 0, 0, 0, 1, 0, 0, 0, 64, 0, 0, 0, 106, 201, 255, 255, 0, 0, 0, 1, 24, 0, 0, 0, 36, 0, 0, 0, 64, 0, 0, 0, 45, 0, 0, 0, 0, 0, 0, 9, 32, 1, 0, 0, 3, 0, 0, 0, 255, 255, 255, 255, 50, 0, 0, 0, 64, 0, 0, 0, 84, 201, 255, 255, 8, 0, 0, 0, 16, 0, 0, 0, 1, 0, 0, 0, 144, 255, 255, 255, 255, 255, 255, 255, 1, 0, 0, 0, 152, 226, 63, 61, 230, 0, 0, 0, 115, 101, 113, 117, 101, 110, 116, 105, 97, 108, 95, 49, 47, 98, 97, 116, 99, 104, 95, 110, 111, 114, 109, 97, 108, 105, 122, 97, 116, 105, 111, 110, 95, 50, 95, 49, 47, 98, 97, 116, 99, 104, 110, 111, 114, 109, 47, 97, 100, 100, 95, 49, 59, 115, 101, 113, 117, 101, 110, 116, 105, 97, 108, 95, 49, 47, 115, 101, 112, 97, 114, 97, 98, 108, 101, 95, 99, 111, 110, 118, 49, 100, 95, 50, 95, 49, 47, 83, 113, 117, 101, 101, 122, 101, 59, 115, 101, 113, 117, 101, 110, 116, 105, 97, 108, 95, 49, 47, 98, 97, 116, 99, 104, 95, 110, 111, 114, 109, 97, 108, 105, 122, 97, 116, 105, 111, 110, 95, 50, 95, 49, 47, 98, 97, 116, 99, 104, 110, 111, 114, 109, 47, 109, 117, 108, 95, 49, 59, 115, 101, 113, 117, 101, 110, 116, 105, 97, 108, 95, 49, 47, 115, 101, 112, 97, 114, 97, 98, 108, 101, 95, 99, 111, 110, 118, 49, 100, 95, 50, 95, 49, 47, 82, 101, 108, 117, 59, 115, 101, 113, 117, 101, 110, 116, 105, 97, 108, 95, 49, 47, 115, 101, 112, 97, 114, 97, 98, 108, 101, 95, 99, 111, 110, 118, 49, 100, 95, 50, 95, 49, 47, 66, 105, 97, 115, 65, 100, 100, 59, 49, 0, 0, 3, 0, 0, 0, 1, 0, 0, 0, 50, 0, 0, 0, 64, 0, 0, 0, 182, 202, 255, 255, 0, 0, 0, 1, 24, 0, 0, 0, 40, 0, 0, 0, 72, 0, 0, 0, 44, 0, 0, 0, 0, 0, 0, 9, 40, 1, 0, 0, 4, 0, 0, 0, 255, 255, 255, 255, 1, 0, 0, 0, 50, 0, 0, 0, 64, 0, 0, 0, 164, 202, 255, 255, 8, 0, 0, 0, 20, 0, 0, 0, 1, 0, 0, 0, 144, 255, 255, 255, 255, 255, 255, 255, 0, 0, 0, 0, 1, 0, 0, 0, 152, 226, 63, 61, 229, 0, 0, 0, 115, 101, 113, 117, 101, 110, 116, 105, 97, 108, 95, 49, 47, 98, 97, 116, 99, 104, 95, 110, 111, 114, 109, 97, 108, 105, 122, 97, 116, 105, 111, 110, 95, 50, 95, 49, 47, 98, 97, 116, 99, 104, 110, 111, 114, 109, 47, 97, 100, 100, 95, 49, 59, 115, 101, 113, 117, 101, 110, 116, 105, 97, 108, 95, 49, 47, 115, 101, 112, 97, 114, 97, 98, 108, 101, 95, 99, 111, 110, 118, 49, 100, 95, 50, 95, 49, 47, 83, 113, 117, 101, 101, 122, 101, 59, 115, 101, 113, 117, 101, 110, 116, 105, 97, 108, 95, 49, 47, 98, 97, 116, 99, 104, 95, 110, 111, 114, 109, 97, 108, 105, 122, 97, 116, 105, 111, 110, 95, 50, 95, 49, 47, 98, 97, 116, 99, 104, 110, 111, 114, 109, 47, 109, 117, 108, 95, 49, 59, 115, 101, 113, 117, 101, 110, 116, 105, 97, 108, 95, 49, 47, 115, 101, 112, 97, 114, 97, 98, 108, 101, 95, 99, 111, 110, 118, 49, 100, 95, 50, 95, 49, 47, 82, 101, 108, 117, 59, 115, 101, 113, 117, 101, 110, 116, 105, 97, 108, 95, 49, 47, 115, 101, 112, 97, 114, 97, 98, 108, 101, 95, 99, 111, 110, 118, 49, 100, 95, 50, 95, 49, 47, 66, 105, 97, 115, 65, 100, 100, 59, 0, 0, 0, 4, 0, 0, 0, 1, 0, 0, 0, 1, 0, 0, 0, 50, 0, 0, 0, 64, 0, 0, 0, 14, 204, 255, 255, 0, 0, 0, 1, 24, 0, 0, 0, 40, 0, 0, 0, 68, 0, 0, 0, 43, 0, 0, 0, 0, 0, 0, 9, 240, 0, 0, 0, 4, 0, 0, 0, 255, 255, 255, 255, 1, 0, 0, 0, 50, 0, 0, 0, 64, 0, 0, 0, 252, 203, 255, 255, 8, 0, 0, 0, 16, 0, 0, 0, 1, 0, 0, 0, 144, 255, 255, 255, 255, 255, 255, 255, 1, 0, 0, 0, 170, 3, 73, 61, 176, 0, 0, 0, 115, 101, 113, 117, 101, 110, 116, 105, 97, 108, 95, 49, 47, 98, 97, 116, 99, 104, 95, 110, 111, 114, 109, 97, 108, 105, 122, 97, 116, 105, 111, 110, 95, 50, 95, 49, 47, 98, 97, 116, 99, 104, 110, 111, 114, 109, 47, 109, 117, 108, 95, 49, 59, 115, 101, 113, 117, 101, 110, 116, 105, 97, 108, 95, 49, 47, 115, 101, 112, 97, 114, 97, 98, 108, 101, 95, 99, 111, 110, 118, 49, 100, 95, 50, 95, 49, 47, 83, 113, 117, 101, 101, 122, 101, 59, 115, 101, 113, 117, 101, 110, 116, 105, 97, 108, 95, 49, 47, 115, 101, 112, 97, 114, 97, 98, 108, 101, 95, 99, 111, 110, 118, 49, 100, 95, 50, 95, 49, 47, 82, 101, 108, 117, 59, 115, 101, 113, 117, 101, 110, 116, 105, 97, 108, 95, 49, 47, 115, 101, 112, 97, 114, 97, 98, 108, 101, 95, 99, 111, 110, 118, 49, 100, 95, 50, 95, 49, 47, 66, 105, 97, 115, 65, 100, 100, 59, 0, 0, 0, 0, 4, 0, 0, 0, 1, 0, 0, 0, 1, 0, 0, 0, 50, 0, 0, 0, 64, 0, 0, 0, 46, 205, 255, 255, 0, 0, 0, 1, 24, 0, 0, 0, 40, 0, 0, 0, 72, 0, 0, 0, 42, 0, 0, 0, 0, 0, 0, 9, 240, 0, 0, 0, 4, 0, 0, 0, 255, 255, 255, 255, 1, 0, 0, 0, 50, 0, 0, 0, 64, 0, 0, 0, 28, 205, 255, 255, 8, 0, 0, 0, 20, 0, 0, 0, 1, 0, 0, 0, 128, 255, 255, 255, 255, 255, 255, 255, 0, 0, 0, 0, 1, 0, 0, 0, 115, 175, 60, 61, 174, 0, 0, 0, 115, 101, 113, 117, 101, 110, 116, 105, 97, 108, 95, 49, 47, 115, 101, 112, 97, 114, 97, 98, 108, 101, 95, 99, 111, 110, 118, 49, 100, 95, 50, 95, 49, 47, 82, 101, 108, 117, 59, 115, 101, 113, 117, 101, 110, 116, 105, 97, 108, 95, 49, 47, 115, 101, 112, 97, 114, 97, 98, 108, 101, 95, 99, 111, 110, 118, 49, 100, 95, 50, 95, 49, 47, 66, 105, 97, 115, 65, 100, 100, 59, 115, 101, 113, 117, 101, 110, 116, 105, 97, 108, 95, 49, 47, 115, 101, 112, 97, 114, 97, 98, 108, 101, 95, 99, 111, 110, 118, 49, 100, 95, 50, 95, 49, 47, 83, 113, 117, 101, 101, 122, 101, 59, 59, 115, 101, 113, 117, 101, 110, 116, 105, 97, 108, 95, 49, 47, 115, 101, 112, 97, 114, 97, 98, 108, 101, 95, 99, 111, 110, 118, 49, 100, 95, 50, 95, 49, 47, 115, 101, 112, 97, 114, 97, 98, 108, 101, 95, 99, 111, 110, 118, 50, 100, 0, 0, 4, 0, 0, 0, 1, 0, 0, 0, 1, 0, 0, 0, 50, 0, 0, 0, 64, 0, 0, 0, 78, 206, 255, 255, 0, 0, 0, 1, 24, 0, 0, 0, 40, 0, 0, 0, 72, 0, 0, 0, 41, 0, 0, 0, 0, 0, 0, 9, 128, 0, 0, 0, 4, 0, 0, 0, 255, 255, 255, 255, 1, 0, 0, 0, 50, 0, 0, 0, 64, 0, 0, 0, 60, 206, 255, 255, 8, 0, 0, 0, 20, 0, 0, 0, 1, 0, 0, 0, 240, 255, 255, 255, 255, 255, 255, 255, 0, 0, 0, 0, 1, 0, 0, 0, 54, 241, 157, 60, 60, 0, 0, 0, 115, 101, 113, 117, 101, 110, 116, 105, 97, 108, 95, 49, 47, 115, 101, 112, 97, 114, 97, 98, 108, 101, 95, 99, 111, 110, 118, 49, 100, 95, 50, 95, 49, 47, 115, 101, 112, 97, 114, 97, 98, 108, 101, 95, 99, 111, 110, 118, 50, 100, 47, 100, 101, 112, 116, 104, 119, 105, 115, 101, 0, 0, 0, 0, 4, 0, 0, 0, 1, 0, 0, 0, 1, 0, 0, 0, 50, 0, 0, 0, 64, 0, 0, 0, 254, 206, 255, 255, 0, 0, 0, 1, 24, 0, 0, 0, 40, 0, 0, 0, 68, 0, 0, 0, 40, 0, 0, 0, 0, 0, 0, 9, 108, 0, 0, 0, 4, 0, 0, 0, 255, 255, 255, 255, 1, 0, 0, 0, 100, 0, 0, 0, 64, 0, 0, 0, 236, 206, 255, 255, 8, 0, 0, 0, 16, 0, 0, 0, 1, 0, 0, 0, 142, 255, 255, 255, 255, 255, 255, 255, 1, 0, 0, 0, 223, 209, 123, 61, 44, 0, 0, 0, 115, 101, 113, 117, 101, 110, 116, 105, 97, 108, 95, 49, 47, 115, 101, 112, 97, 114, 97, 98, 108, 101, 95, 99, 111, 110, 118, 49, 100, 95, 50, 95, 49, 47, 69, 120, 112, 97, 110, 100, 68, 105, 109, 115, 0, 0, 0, 0, 4, 0, 0, 0, 1, 0, 0, 0, 1, 0, 0, 0, 100, 0, 0, 0, 64, 0, 0, 0, 154, 207, 255, 255, 0, 0, 0, 1, 24, 0, 0, 0, 36, 0, 0, 0, 64, 0, 0, 0, 39, 0, 0, 0, 0, 0, 0, 9, 32, 1, 0, 0, 3, 0, 0, 0, 255, 255, 255, 255, 100, 0, 0, 0, 64, 0, 0, 0, 132, 207, 255, 255, 8, 0, 0, 0, 16, 0, 0, 0, 1, 0, 0, 0, 142, 255, 255, 255, 255, 255, 255, 255, 1, 0, 0, 0, 223, 209, 123, 61, 230, 0, 0, 0, 115, 101, 113, 117, 101, 110, 116, 105, 97, 108, 95, 49, 47, 98, 97, 116, 99, 104, 95, 110, 111, 114, 109, 97, 108, 105, 122, 97, 116, 105, 111, 110, 95, 49, 95, 50, 47, 98, 97, 116, 99, 104, 110, 111, 114, 109, 47, 97, 100, 100, 95, 49, 59, 115, 101, 113, 117, 101, 110, 116, 105, 97, 108, 95, 49, 47, 115, 101, 112, 97, 114, 97, 98, 108, 101, 95, 99, 111, 110, 118, 49, 100, 95, 49, 95, 50, 47, 83, 113, 117, 101, 101, 122, 101, 59, 115, 101, 113, 117, 101, 110, 116, 105, 97, 108, 95, 49, 47, 98, 97, 116, 99, 104, 95, 110, 111, 114, 109, 97, 108, 105, 122, 97, 116, 105, 111, 110, 95, 49, 95, 50, 47, 98, 97, 116, 99, 104, 110, 111, 114, 109, 47, 109, 117, 108, 95, 49, 59, 115, 101, 113, 117, 101, 110, 116, 105, 97, 108, 95, 49, 47, 115, 101, 112, 97, 114, 97, 98, 108, 101, 95, 99, 111, 110, 118, 49, 100, 95, 49, 95, 50, 47, 82, 101, 108, 117, 59, 115, 101, 113, 117, 101, 110, 116, 105, 97, 108, 95, 49, 47, 115, 101, 112, 97, 114, 97, 98, 108, 101, 95, 99, 111, 110, 118, 49, 100, 95, 49, 95, 50, 47, 66, 105, 97, 115, 65, 100, 100, 59, 49, 0, 0, 3, 0, 0, 0, 1, 0, 0, 0, 100, 0, 0, 0, 64, 0, 0, 0, 230, 208, 255, 255, 0, 0, 0, 1, 24, 0, 0, 0, 40, 0, 0, 0, 72, 0, 0, 0, 38, 0, 0, 0, 0, 0, 0, 9, 40, 1, 0, 0, 4, 0, 0, 0, 255, 255, 255, 255, 1, 0, 0, 0, 100, 0, 0, 0, 64, 0, 0, 0, 212, 208, 255, 255, 8, 0, 0, 0, 20, 0, 0, 0, 1, 0, 0, 0, 142, 255, 255, 255, 255, 255, 255, 255, 0, 0, 0, 0, 1, 0, 0, 0, 223, 209, 123, 61, 229, 0, 0, 0, 115, 101, 113, 117, 101, 110, 116, 105, 97, 108, 95, 49, 47, 98, 97, 116, 99, 104, 95, 110, 111, 114, 109, 97, 108, 105, 122, 97, 116, 105, 111, 110, 95, 49, 95, 50, 47, 98, 97, 116, 99, 104, 110, 111, 114, 109, 47, 97, 100, 100, 95, 49, 59, 115, 101, 113, 117, 101, 110, 116, 105, 97, 108, 95, 49, 47, 115, 101, 112, 97, 114, 97, 98, 108, 101, 95, 99, 111, 110, 118, 49, 100, 95, 49, 95, 50, 47, 83, 113, 117, 101, 101, 122, 101, 59, 115, 101, 113, 117, 101, 110, 116, 105, 97, 108, 95, 49, 47, 98, 97, 116, 99, 104, 95, 110, 111, 114, 109, 97, 108, 105, 122, 97, 116, 105, 111, 110, 95, 49, 95, 50, 47, 98, 97, 116, 99, 104, 110, 111, 114, 109, 47, 109, 117, 108, 95, 49, 59, 115, 101, 113, 117, 101, 110, 116, 105, 97, 108, 95, 49, 47, 115, 101, 112, 97, 114, 97, 98, 108, 101, 95, 99, 111, 110, 118, 49, 100, 95, 49, 95, 50, 47, 82, 101, 108, 117, 59, 115, 101, 113, 117, 101, 110, 116, 105, 97, 108, 95, 49, 47, 115, 101, 112, 97, 114, 97, 98, 108, 101, 95, 99, 111, 110, 118, 49, 100, 95, 49, 95, 50, 47, 66, 105, 97, 115, 65, 100, 100, 59, 0, 0, 0, 4, 0, 0, 0, 1, 0, 0, 0, 1, 0, 0, 0, 100, 0, 0, 0, 64, 0, 0, 0, 62, 210, 255, 255, 0, 0, 0, 1, 24, 0, 0, 0, 40, 0, 0, 0, 68, 0, 0, 0, 37, 0, 0, 0, 0, 0, 0, 9, 240, 0, 0, 0, 4, 0, 0, 0, 255, 255, 255, 255, 1, 0, 0, 0, 100, 0, 0, 0, 64, 0, 0, 0, 44, 210, 255, 255, 8, 0, 0, 0, 16, 0, 0, 0, 1, 0, 0, 0, 142, 255, 255, 255, 255, 255, 255, 255, 1, 0, 0, 0, 130, 52, 129, 61, 176, 0, 0, 0, 115, 101, 113, 117, 101, 110, 116, 105, 97, 108, 95, 49, 47, 98, 97, 116, 99, 104, 95, 110, 111, 114, 109, 97, 108, 105, 122, 97, 116, 105, 111, 110, 95, 49, 95, 50, 47, 98, 97, 116, 99, 104, 110, 111, 114, 109, 47, 109, 117, 108, 95, 49, 59, 115, 101, 113, 117, 101, 110, 116, 105, 97, 108, 95, 49, 47, 115, 101, 112, 97, 114, 97, 98, 108, 101, 95, 99, 111, 110, 118, 49, 100, 95, 49, 95, 50, 47, 83, 113, 117, 101, 101, 122, 101, 59, 115, 101, 113, 117, 101, 110, 116, 105, 97, 108, 95, 49, 47, 115, 101, 112, 97, 114, 97, 98, 108, 101, 95, 99, 111, 110, 118, 49, 100, 95, 49, 95, 50, 47, 82, 101, 108, 117, 59, 115, 101, 113, 117, 101, 110, 116, 105, 97, 108, 95, 49, 47, 115, 101, 112, 97, 114, 97, 98, 108, 101, 95, 99, 111, 110, 118, 49, 100, 95, 49, 95, 50, 47, 66, 105, 97, 115, 65, 100, 100, 59, 0, 0, 0, 0, 4, 0, 0, 0, 1, 0, 0, 0, 1, 0, 0, 0, 100, 0, 0, 0, 64, 0, 0, 0, 94, 211, 255, 255, 0, 0, 0, 1, 24, 0, 0, 0, 40, 0, 0, 0, 72, 0, 0, 0, 36, 0, 0, 0, 0, 0, 0, 9, 240, 0, 0, 0, 4, 0, 0, 0, 255, 255, 255, 255, 1, 0, 0, 0, 100, 0, 0, 0, 64, 0, 0, 0, 76, 211, 255, 255, 8, 0, 0, 0, 20, 0, 0, 0, 1, 0, 0, 0, 128, 255, 255, 255, 255, 255, 255, 255, 0, 0, 0, 0, 1, 0, 0, 0, 148, 182, 116, 61, 174, 0, 0, 0, 115, 101, 113, 117, 101, 110, 116, 105, 97, 108, 95, 49, 47, 115, 101, 112, 97, 114, 97, 98, 108, 101, 95, 99, 111, 110, 118, 49, 100, 95, 49, 95, 50, 47, 82, 101, 108, 117, 59, 115, 101, 113, 117, 101, 110, 116, 105, 97, 108, 95, 49, 47, 115, 101, 112, 97, 114, 97, 98, 108, 101, 95, 99, 111, 110, 118, 49, 100, 95, 49, 95, 50, 47, 66, 105, 97, 115, 65, 100, 100, 59, 115, 101, 113, 117, 101, 110, 116, 105, 97, 108, 95, 49, 47, 115, 101, 112, 97, 114, 97, 98, 108, 101, 95, 99, 111, 110, 118, 49, 100, 95, 49, 95, 50, 47, 83, 113, 117, 101, 101, 122, 101, 59, 59, 115, 101, 113, 117, 101, 110, 116, 105, 97, 108, 95, 49, 47, 115, 101, 112, 97, 114, 97, 98, 108, 101, 95, 99, 111, 110, 118, 49, 100, 95, 49, 95, 50, 47, 115, 101, 112, 97, 114, 97, 98, 108, 101, 95, 99, 111, 110, 118, 50, 100, 0, 0, 4, 0, 0, 0, 1, 0, 0, 0, 1, 0, 0, 0, 100, 0, 0, 0, 64, 0, 0, 0, 126, 212, 255, 255, 0, 0, 0, 1, 24, 0, 0, 0, 40, 0, 0, 0, 72, 0, 0, 0, 35, 0, 0, 0, 0, 0, 0, 9, 128, 0, 0, 0, 4, 0, 0, 0, 255, 255, 255, 255, 1, 0, 0, 0, 100, 0, 0, 0, 32, 0, 0, 0, 108, 212, 255, 255, 8, 0, 0, 0, 20, 0, 0, 0, 1, 0, 0, 0, 14, 0, 0, 0, 0, 0, 0, 0, 0, 0, 0, 0, 1, 0, 0, 0, 155, 97, 248, 60, 60, 0, 0, 0, 115, 101, 113, 117, 101, 110, 116, 105, 97, 108, 95, 49, 47, 115, 101, 112, 97, 114, 97, 98, 108, 101, 95, 99, 111, 110, 118, 49, 100, 95, 49, 95, 50, 47, 115, 101, 112, 97, 114, 97, 98, 108, 101, 95, 99, 111, 110, 118, 50, 100, 47, 100, 101, 112, 116, 104, 119, 105, 115, 101, 0, 0, 0, 0, 4, 0, 0, 0, 1, 0, 0, 0, 1, 0, 0, 0, 100, 0, 0, 0, 32, 0, 0, 0, 46, 213, 255, 255, 0, 0, 0, 1, 24, 0, 0, 0, 40, 0, 0, 0, 68, 0, 0, 0, 34, 0, 0, 0, 0, 0, 0, 9, 108, 0, 0, 0, 4, 0, 0, 0, 255, 255, 255, 255, 1, 0, 0, 0, 200, 0, 0, 0, 32, 0, 0, 0, 28, 213, 255, 255, 8, 0, 0, 0, 16, 0, 0, 0, 1, 0, 0, 0, 140, 255, 255, 255, 255, 255, 255, 255, 1, 0, 0, 0, 129, 130, 127, 61, 44, 0, 0, 0, 115, 101, 113, 117, 101, 110, 116, 105, 97, 108, 95, 49, 47, 115, 101, 112, 97, 114, 97, 98, 108, 101, 95, 99, 111, 110, 118, 49, 100, 95, 49, 95, 50, 47, 69, 120, 112, 97, 110, 100, 68, 105, 109, 115, 0, 0, 0, 0, 4, 0, 0, 0, 1, 0, 0, 0, 1, 0, 0, 0, 200, 0, 0, 0, 32, 0, 0, 0, 202, 213, 255, 255, 0, 0, 0, 1, 24, 0, 0, 0, 36, 0, 0, 0, 64, 0, 0, 0, 33, 0, 0, 0, 0, 0, 0, 9, 24, 1, 0, 0, 3, 0, 0, 0, 255, 255, 255, 255, 200, 0, 0, 0, 32, 0, 0, 0, 180, 213, 255, 255, 8, 0, 0, 0, 16, 0, 0, 0, 1, 0, 0, 0, 140, 255, 255, 255, 255, 255, 255, 255, 1, 0, 0, 0, 129, 130, 127, 61, 220, 0, 0, 0, 115, 101, 113, 117, 101, 110, 116, 105, 97, 108, 95, 49, 47, 98, 97, 116, 99, 104, 95, 110, 111, 114, 109, 97, 108, 105, 122, 97, 116, 105, 111, 110, 95, 49, 47, 98, 97, 116, 99, 104, 110, 111, 114, 109, 47, 97, 100, 100, 95, 49, 59, 115, 101, 113, 117, 101, 110, 116, 105, 97, 108, 95, 49, 47, 115, 101, 112, 97, 114, 97, 98, 108, 101, 95, 99, 111, 110, 118, 49, 100, 95, 49, 47, 83, 113, 117, 101, 101, 122, 101, 59, 115, 101, 113, 117, 101, 110, 116, 105, 97, 108, 95, 49, 47, 98, 97, 116, 99, 104, 95, 110, 111, 114, 109, 97, 108, 105, 122, 97, 116, 105, 111, 110, 95, 49, 47, 98, 97, 116, 99, 104, 110, 111, 114, 109, 47, 109, 117, 108, 95, 49, 59, 115, 101, 113, 117, 101, 110, 116, 105, 97, 108, 95, 49, 47, 115, 101, 112, 97, 114, 97, 98, 108, 101, 95, 99, 111, 110, 118, 49, 100, 95, 49, 47, 82, 101, 108, 117, 59, 115, 101, 113, 117, 101, 110, 116, 105, 97, 108, 95, 49, 47, 115, 101, 112, 97, 114, 97, 98, 108, 101, 95, 99, 111, 110, 118, 49, 100, 95, 49, 47, 66, 105, 97, 115, 65, 100, 100, 59, 49, 0, 0, 0, 0, 3, 0, 0, 0, 1, 0, 0, 0, 200, 0, 0, 0, 32, 0, 0, 0, 14, 215, 255, 255, 0, 0, 0, 1, 24, 0, 0, 0, 40, 0, 0, 0, 68, 0, 0, 0, 32, 0, 0, 0, 0, 0, 0, 9, 24, 1, 0, 0, 4, 0, 0, 0, 255, 255, 255, 255, 1, 0, 0, 0, 200, 0, 0, 0, 32, 0, 0, 0, 252, 214, 255, 255, 8, 0, 0, 0, 16, 0, 0, 0, 1, 0, 0, 0, 140, 255, 255, 255, 255, 255, 255, 255, 1, 0, 0, 0, 129, 130, 127, 61, 219, 0, 0, 0, 115, 101, 113, 117, 101, 110, 116, 105, 97, 108, 95, 49, 47, 98, 97, 116, 99, 104, 95, 110, 111, 114, 109, 97, 108, 105, 122, 97, 116, 105, 111, 110, 95, 49, 47, 98, 97, 116, 99, 104, 110, 111, 114, 109, 47, 97, 100, 100, 95, 49, 59, 115, 101, 113, 117, 101, 110, 116, 105, 97, 108, 95, 49, 47, 115, 101, 112, 97, 114, 97, 98, 108, 101, 95, 99, 111, 110, 118, 49, 100, 95, 49, 47, 83, 113, 117, 101, 101, 122, 101, 59, 115, 101, 113, 117, 101, 110, 116, 105, 97, 108, 95, 49, 47, 98, 97, 116, 99, 104, 95, 110, 111, 114, 109, 97, 108, 105, 122, 97, 116, 105, 111, 110, 95, 49, 47, 98, 97, 116, 99, 104, 110, 111, 114, 109, 47, 109, 117, 108, 95, 49, 59, 115, 101, 113, 117, 101, 110, 116, 105, 97, 108, 95, 49, 47, 115, 101, 112, 97, 114, 97, 98, 108, 101, 95, 99, 111, 110, 118, 49, 100, 95, 49, 47, 82, 101, 108, 117, 59, 115, 101, 113, 117, 101, 110, 116, 105, 97, 108, 95, 49, 47, 115, 101, 112, 97, 114, 97, 98, 108, 101, 95, 99, 111, 110, 118, 49, 100, 95, 49, 47, 66, 105, 97, 115, 65, 100, 100, 59, 0, 4, 0, 0, 0, 1, 0, 0, 0, 1, 0, 0, 0, 200, 0, 0, 0, 32, 0, 0, 0, 86, 216, 255, 255, 0, 0, 0, 1, 24, 0, 0, 0, 40, 0, 0, 0, 68, 0, 0, 0, 31, 0, 0, 0, 0, 0, 0, 9, 232, 0, 0, 0, 4, 0, 0, 0, 255, 255, 255, 255, 1, 0, 0, 0, 200, 0, 0, 0, 32, 0, 0, 0, 68, 216, 255, 255, 8, 0, 0, 0, 16, 0, 0, 0, 1, 0, 0, 0, 140, 255, 255, 255, 255, 255, 255, 255, 1, 0, 0, 0, 22, 137, 131, 61, 168, 0, 0, 0, 115, 101, 113, 117, 101, 110, 116, 105, 97, 108, 95, 49, 47, 98, 97, 116, 99, 104, 95, 110, 111, 114, 109, 97, 108, 105, 122, 97, 116, 105, 111, 110, 95, 49, 47, 98, 97, 116, 99, 104, 110, 111, 114, 109, 47, 109, 117, 108, 95, 49, 59, 115, 101, 113, 117, 101, 110, 116, 105, 97, 108, 95, 49, 47, 115, 101, 112, 97, 114, 97, 98, 108, 101, 95, 99, 111, 110, 118, 49, 100, 95, 49, 47, 83, 113, 117, 101, 101, 122, 101, 59, 115, 101, 113, 117, 101, 110, 116, 105, 97, 108, 95, 49, 47, 115, 101, 112, 97, 114, 97, 98, 108, 101, 95, 99, 111, 110, 118, 49, 100, 95, 49, 47, 82, 101, 108, 117, 59, 115, 101, 113, 117, 101, 110, 116, 105, 97, 108, 95, 49, 47, 115, 101, 112, 97, 114, 97, 98, 108, 101, 95, 99, 111, 110, 118, 49, 100, 95, 49, 47, 66, 105, 97, 115, 65, 100, 100, 59, 0, 0, 0, 0, 4, 0, 0, 0, 1, 0, 0, 0, 1, 0, 0, 0, 200, 0, 0, 0, 32, 0, 0, 0, 110, 217, 255, 255, 0, 0, 0, 1, 24, 0, 0, 0, 40, 0, 0, 0, 72, 0, 0, 0, 30, 0, 0, 0, 0, 0, 0, 9, 232, 0, 0, 0, 4, 0, 0, 0, 255, 255, 255, 255, 1, 0, 0, 0, 200, 0, 0, 0, 32, 0, 0, 0, 92, 217, 255, 255, 8, 0, 0, 0, 20, 0, 0, 0, 1, 0, 0, 0, 128, 255, 255, 255, 255, 255, 255, 255, 0, 0, 0, 0, 1, 0, 0, 0, 99, 149, 122, 61, 166, 0, 0, 0, 115, 101, 113, 117, 101, 110, 116, 105, 97, 108, 95, 49, 47, 115, 101, 112, 97, 114, 97, 98, 108, 101, 95, 99, 111, 110, 118, 49, 100, 95, 49, 47, 82, 101, 108, 117, 59, 115, 101, 113, 117, 101, 110, 116, 105, 97, 108, 95, 49, 47, 115, 101, 112, 97, 114, 97, 98, 108, 101, 95, 99, 111, 110, 118, 49, 100, 95, 49, 47, 66, 105, 97, 115, 65, 100, 100, 59, 115, 101, 113, 117, 101, 110, 116, 105, 97, 108, 95, 49, 47, 115, 101, 112, 97, 114, 97, 98, 108, 101, 95, 99, 111, 110, 118, 49, 100, 95, 49, 47, 83, 113, 117, 101, 101, 122, 101, 59, 59, 115, 101, 113, 117, 101, 110, 116, 105, 97, 108, 95, 49, 47, 115, 101, 112, 97, 114, 97, 98, 108, 101, 95, 99, 111, 110, 118, 49, 100, 95, 49, 47, 115, 101, 112, 97, 114, 97, 98, 108, 101, 95, 99, 111, 110, 118, 50, 100, 0, 0, 4, 0, 0, 0, 1, 0, 0, 0, 1, 0, 0, 0, 200, 0, 0, 0, 32, 0, 0, 0, 134, 218, 255, 255, 0, 0, 0, 1, 24, 0, 0, 0, 40, 0, 0, 0, 68, 0, 0, 0, 29, 0, 0, 0, 0, 0, 0, 9, 120, 0, 0, 0, 4, 0, 0, 0, 255, 255, 255, 255, 1, 0, 0, 0, 200, 0, 0, 0, 3, 0, 0, 0, 116, 218, 255, 255, 8, 0, 0, 0, 16, 0, 0, 0, 1, 0, 0, 0, 10, 0, 0, 0, 0, 0, 0, 0, 1, 0, 0, 0, 199, 34, 90, 61, 58, 0, 0, 0, 115, 101, 113, 117, 101, 110, 116, 105, 97, 108, 95, 49, 47, 115, 101, 112, 97, 114, 97, 98, 108, 101, 95, 99, 111, 110, 118, 49, 100, 95, 49, 47, 115, 101, 112, 97, 114, 97, 98, 108, 101, 95, 99, 111, 110, 118, 50, 100, 47, 100, 101, 112, 116, 104, 119, 105, 115, 101, 0, 0, 4, 0, 0, 0, 1, 0, 0, 0, 1, 0, 0, 0, 200, 0, 0, 0, 3, 0, 0, 0, 46, 219, 255, 255, 0, 0, 0, 1, 24, 0, 0, 0, 40, 0, 0, 0, 72, 0, 0, 0, 28, 0, 0, 0, 0, 0, 0, 9, 108, 0, 0, 0, 4, 0, 0, 0, 255, 255, 255, 255, 1, 0, 0, 0, 200, 0, 0, 0, 3, 0, 0, 0, 28, 219, 255, 255, 8, 0, 0, 0, 20, 0, 0, 0, 1, 0, 0, 0, 255, 255, 255, 255, 255, 255, 255, 255, 0, 0, 0, 0, 1, 0, 0, 0, 176, 75, 121, 61, 42, 0, 0, 0, 115, 101, 113, 117, 101, 110, 116, 105, 97, 108, 95, 49, 47, 115, 101, 112, 97, 114, 97, 98, 108, 101, 95, 99, 111, 110, 118, 49, 100, 95, 49, 47, 69, 120, 112, 97, 110, 100, 68, 105, 109, 115, 0, 0, 4, 0, 0, 0, 1, 0, 0, 0, 1, 0, 0, 0, 200, 0, 0, 0, 3, 0, 0, 0, 30, 220, 255, 255, 0, 0, 0, 1, 20, 0, 0, 0, 76, 0, 0, 0, 27, 0, 0, 0, 0, 0, 0, 9, 88, 0, 0, 0, 114, 239, 255, 255, 3, 0, 0, 0, 8, 0, 0, 0, 32, 0, 0, 0, 3, 0, 0, 0, 0, 0, 0, 0, 0, 0, 0, 0, 0, 0, 0, 0, 0, 0, 0, 0, 0, 0, 0, 0, 0, 0, 0, 0, 3, 0, 0, 0, 242, 101, 128, 59, 232, 58, 6, 59, 160, 201, 118, 59, 19, 0, 0, 0, 116, 102, 108, 46, 112, 115, 101, 117, 100, 111, 95, 113, 99, 111, 110, 115, 116, 50, 49, 0, 4, 0, 0, 0, 1, 0, 0, 0, 1, 0, 0, 0, 5, 0, 0, 0, 3, 0, 0, 0, 162, 220, 255, 255, 0, 0, 0, 1, 20, 0, 0, 0, 76, 0, 0, 0, 26, 0, 0, 0, 0, 0, 0, 2, 88, 0, 0, 0, 36, 220, 255, 255, 8, 0, 0, 0, 36, 0, 0, 0, 3, 0, 0, 0, 0, 0, 0, 0, 0, 0, 0, 0, 0, 0, 0, 0, 0, 0, 0, 0, 0, 0, 0, 0, 0, 0, 0, 0, 0, 0, 0, 0, 3, 0, 0, 0, 61, 18, 122, 57, 251, 182, 2, 57, 19, 83, 112, 57, 19, 0, 0, 0, 116, 102, 108, 46, 112, 115, 101, 117, 100, 111, 95, 113, 99, 111, 110, 115, 116, 50, 48, 0, 1, 0, 0, 0, 3, 0, 0, 0, 26, 221, 255, 255, 0, 0, 0, 1, 20, 0, 0, 0, 168, 1, 0, 0, 25, 0, 0, 0, 0, 0, 0, 9, 180, 1, 0, 0, 156, 220, 255, 255, 8, 0, 0, 0, 12, 1, 0, 0, 32, 0, 0, 0, 0, 0, 0, 0, 0, 0, 0, 0, 0, 0, 0, 0, 0, 0, 0, 0, 0, 0, 0, 0, 0, 0, 0, 0, 0, 0, 0, 0, 0, 0, 0, 0, 0, 0, 0, 0, 0, 0, 0, 0, 0, 0, 0, 0, 0, 0, 0, 0, 0, 0, 0, 0, 0, 0, 0, 0, 0, 0, 0, 0, 0, 0, 0, 0, 0, 0, 0, 0, 0, 0, 0, 0, 0, 0, 0, 0, 0, 0, 0, 0, 0, 0, 0, 0, 0, 0, 0, 0, 0, 0, 0, 0, 0, 0, 0, 0, 0, 0, 0, 0, 0, 0, 0, 0, 0, 0, 0, 0, 0, 0, 0, 0, 0, 0, 0, 0, 0, 0, 0, 0, 0, 0, 0, 0, 0, 0, 0, 0, 0, 0, 0, 0, 0, 0, 0, 0, 0, 0, 0, 0, 0, 0, 0, 0, 0, 0, 0, 0, 0, 0, 0, 0, 0, 0, 0, 0, 0, 0, 0, 0, 0, 0, 0, 0, 0, 0, 0, 0, 0, 0, 0, 0, 0, 0, 0, 0, 0, 0, 0, 0, 0, 0, 0, 0, 0, 0, 0, 0, 0, 0, 0, 0, 0, 0, 0, 0, 0, 0, 0, 0, 0, 0, 0, 0, 0, 0, 0, 0, 0, 0, 0, 0, 0, 0, 0, 0, 0, 0, 0, 0, 0, 0, 0, 0, 0, 0, 0, 0, 0, 0, 0, 0, 0, 0, 0, 0, 0, 0, 0, 0, 0, 0, 0, 0, 0, 0, 0, 0, 0, 0, 0, 0, 0, 0, 0, 0, 0, 0, 0, 0, 32, 0, 0, 0, 48, 95, 88, 59, 252, 70, 8, 59, 211, 64, 35, 59, 77, 135, 69, 59, 235, 241, 111, 59, 210, 32, 89, 59, 63, 28, 32, 59, 10, 108, 64, 59, 44, 130, 91, 59, 221, 207, 52, 59, 126, 22, 29, 59, 185, 0, 124, 59, 184, 135, 72, 59, 77, 93, 52, 59, 31, 35, 115, 59, 185, 111, 4, 59, 143, 90, 114, 59, 246, 113, 203, 58, 69, 217, 33, 59, 177, 92, 72, 59, 135, 113, 106, 59, 33, 98, 72, 59, 184, 111, 70, 59, 61, 194, 38, 59, 67, 62, 29, 59, 215, 56, 117, 59, 148, 186, 70, 59, 23, 54, 72, 59, 221, 55, 61, 59, 207, 193, 127, 59, 255, 176, 66, 59, 226, 0, 65, 59, 19, 0, 0, 0, 116, 102, 108, 46, 112, 115, 101, 117, 100, 111, 95, 113, 99, 111, 110, 115, 116, 49, 57, 0, 4, 0, 0, 0, 32, 0, 0, 0, 1, 0, 0, 0, 1, 0, 0, 0, 3, 0, 0, 0, 250, 222, 255, 255, 0, 0, 0, 1, 20, 0, 0, 0, 164, 1, 0, 0, 24, 0, 0, 0, 0, 0, 0, 2, 176, 1, 0, 0, 124, 222, 255, 255, 8, 0, 0, 0, 8, 1, 0, 0, 32, 0, 0, 0, 0, 0, 0, 0, 0, 0, 0, 0, 0, 0, 0, 0, 0, 0, 0, 0, 0, 0, 0, 0, 0, 0, 0, 0, 0, 0, 0, 0, 0, 0, 0, 0, 0, 0, 0, 0, 0, 0, 0, 0, 0, 0, 0, 0, 0, 0, 0, 0, 0, 0, 0, 0, 0, 0, 0, 0, 0, 0, 0, 0, 0, 0, 0, 0, 0, 0, 0, 0, 0, 0, 0, 0, 0, 0, 0, 0, 0, 0, 0, 0, 0, 0, 0, 0, 0, 0, 0, 0, 0, 0, 0, 0, 0, 0, 0, 0, 0, 0, 0, 0, 0, 0, 0, 0, 0, 0, 0, 0, 0, 0, 0, 0, 0, 0, 0, 0, 0, 0, 0, 0, 0, 0, 0, 0, 0, 0, 0, 0, 0, 0, 0, 0, 0, 0, 0, 0, 0, 0, 0, 0, 0, 0, 0, 0, 0, 0, 0, 0, 0, 0, 0, 0, 0, 0, 0, 0, 0, 0, 0, 0, 0, 0, 0, 0, 0, 0, 0, 0, 0, 0, 0, 0, 0, 0, 0, 0, 0, 0, 0, 0, 0, 0, 0, 0, 0, 0, 0, 0, 0, 0, 0, 0, 0, 0, 0, 0, 0, 0, 0, 0, 0, 0, 0, 0, 0, 0, 0, 0, 0, 0, 0, 0, 0, 0, 0, 0, 0, 0, 0, 0, 0, 0, 0, 0, 0, 0, 0, 0, 0, 0, 0, 0, 0, 0, 0, 0, 0, 0, 0, 0, 0, 0, 0, 0, 0, 0, 0, 0, 0, 0, 0, 0, 0, 0, 0, 0, 32, 0, 0, 0, 116, 94, 56, 57, 236, 61, 232, 56, 97, 27, 11, 57, 13, 80, 40, 57, 155, 116, 76, 57, 114, 3, 57, 57, 206, 109, 8, 57, 36, 246, 35, 57, 171, 10, 59, 57, 146, 17, 26, 57, 126, 218, 5, 57, 218, 186, 86, 57, 209, 222, 42, 57, 244, 175, 25, 57, 240, 44, 79, 57, 67, 178, 225, 56, 10, 130, 78, 57, 175, 90, 173, 56, 1, 233, 9, 57, 39, 186, 42, 57, 134, 196, 71, 57, 201, 190, 42, 57, 24, 22, 41, 57, 15, 24, 14, 57, 98, 252, 5, 57, 183, 243, 80, 57, 225, 85, 41, 57, 66, 153, 42, 57, 71, 59, 33, 57, 201, 237, 89, 57, 44, 229, 37, 57, 249, 116, 36, 57, 19, 0, 0, 0, 116, 102, 108, 46, 112, 115, 101, 117, 100, 111, 95, 113, 99, 111, 110, 115, 116, 49, 56, 0, 1, 0, 0, 0, 32, 0, 0, 0, 202, 224, 255, 255, 0, 0, 0, 1, 20, 0, 0, 0, 52, 0, 0, 0, 23, 0, 0, 0, 0, 0, 0, 9, 64, 0, 0, 0, 76, 224, 255, 255, 8, 0, 0, 0, 20, 0, 0, 0, 1, 0, 0, 0, 128, 255, 255, 255, 255, 255, 255, 255, 0, 0, 0, 0, 1, 0, 0, 0, 89, 89, 31, 61, 19, 0, 0, 0, 116, 102, 108, 46, 112, 115, 101, 117, 100, 111, 95, 113, 99, 111, 110, 115, 116, 49, 55, 0, 1, 0, 0, 0, 32, 0, 0, 0, 42, 225, 255, 255, 0, 0, 0, 1, 20, 0, 0, 0, 48, 0, 0, 0, 22, 0, 0, 0, 0, 0, 0, 9, 60, 0, 0, 0, 172, 224, 255, 255, 8, 0, 0, 0, 16, 0, 0, 0, 1, 0, 0, 0, 127, 0, 0, 0, 0, 0, 0, 0, 1, 0, 0, 0, 133, 204, 71, 59, 19, 0, 0, 0, 116, 102, 108, 46, 112, 115, 101, 117, 100, 111, 95, 113, 99, 111, 110, 115, 116, 49, 54, 0, 1, 0, 0, 0, 32, 0, 0, 0, 134, 225, 255, 255, 0, 0, 0, 1, 20, 0, 0, 0, 172, 1, 0, 0, 21, 0, 0, 0, 0, 0, 0, 9, 184, 1, 0, 0, 218, 244, 255, 255, 3, 0, 0, 0, 8, 0, 0, 0, 12, 1, 0, 0, 32, 0, 0, 0, 0, 0, 0, 0, 0, 0, 0, 0, 0, 0, 0, 0, 0, 0, 0, 0, 0, 0, 0, 0, 0, 0, 0, 0, 0, 0, 0, 0, 0, 0, 0, 0, 0, 0, 0, 0, 0, 0, 0, 0, 0, 0, 0, 0, 0, 0, 0, 0, 0, 0, 0, 0, 0, 0, 0, 0, 0, 0, 0, 0, 0, 0, 0, 0, 0, 0, 0, 0, 0, 0, 0, 0, 0, 0, 0, 0, 0, 0, 0, 0, 0, 0, 0, 0, 0, 0, 0, 0, 0, 0, 0, 0, 0, 0, 0, 0, 0, 0, 0, 0, 0, 0, 0, 0, 0, 0, 0, 0, 0, 0, 0, 0, 0, 0, 0, 0, 0, 0, 0, 0, 0, 0, 0, 0, 0, 0, 0, 0, 0, 0, 0, 0, 0, 0, 0, 0, 0, 0, 0, 0, 0, 0, 0, 0, 0, 0, 0, 0, 0, 0, 0, 0, 0, 0, 0, 0, 0, 0, 0, 0, 0, 0, 0, 0, 0, 0, 0, 0, 0, 0, 0, 0, 0, 0, 0, 0, 0, 0, 0, 0, 0, 0, 0, 0, 0, 0, 0, 0, 0, 0, 0, 0, 0, 0, 0, 0, 0, 0, 0, 0, 0, 0, 0, 0, 0, 0, 0, 0, 0, 0, 0, 0, 0, 0, 0, 0, 0, 0, 0, 0, 0, 0, 0, 0, 0, 0, 0, 0, 0, 0, 0, 0, 0, 0, 0, 0, 0, 0, 0, 0, 0, 0, 0, 0, 0, 0, 0, 0, 0, 0, 0, 0, 0, 0, 0, 0, 0, 0, 0, 0, 32, 0, 0, 0, 66, 50, 150, 58, 63, 101, 149, 58, 173, 107, 183, 58, 48, 243, 136, 58, 37, 154, 191, 58, 194, 49, 159, 58, 133, 204, 220, 58, 185, 51, 161, 58, 12, 98, 221, 58, 210, 118, 160, 58, 196, 72, 190, 58, 95, 55, 207, 58, 93, 227, 82, 58, 165, 143, 166, 58, 10, 176, 232, 58, 197, 58, 140, 58, 149, 119, 189, 58, 226, 170, 139, 58, 99, 111, 223, 58, 190, 73, 182, 58, 142, 125, 132, 58, 157, 214, 217, 58, 115, 132, 206, 58, 39, 106, 195, 58, 70, 138, 195, 58, 100, 239, 145, 58, 208, 0, 243, 58, 48, 202, 145, 58, 52, 226, 215, 58, 166, 140, 159, 58, 62, 249, 171, 58, 252, 65, 188, 58, 19, 0, 0, 0, 116, 102, 108, 46, 112, 115, 101, 117, 100, 111, 95, 113, 99, 111, 110, 115, 116, 49, 53, 0, 4, 0, 0, 0, 1, 0, 0, 0, 1, 0, 0, 0, 5, 0, 0, 0, 32, 0, 0, 0, 106, 227, 255, 255, 0, 0, 0, 1, 20, 0, 0, 0, 164, 1, 0, 0, 20, 0, 0, 0, 0, 0, 0, 2, 176, 1, 0, 0, 236, 226, 255, 255, 8, 0, 0, 0, 8, 1, 0, 0, 32, 0, 0, 0, 0, 0, 0, 0, 0, 0, 0, 0, 0, 0, 0, 0, 0, 0, 0, 0, 0, 0, 0, 0, 0, 0, 0, 0, 0, 0, 0, 0, 0, 0, 0, 0, 0, 0, 0, 0, 0, 0, 0, 0, 0, 0, 0, 0, 0, 0, 0, 0, 0, 0, 0, 0, 0, 0, 0, 0, 0, 0, 0, 0, 0, 0, 0, 0, 0, 0, 0, 0, 0, 0, 0, 0, 0, 0, 0, 0, 0, 0, 0, 0, 0, 0, 0, 0, 0, 0, 0, 0, 0, 0, 0, 0, 0, 0, 0, 0, 0, 0, 0, 0, 0, 0, 0, 0, 0, 0, 0, 0, 0, 0, 0, 0, 0, 0, 0, 0, 0, 0, 0, 0, 0, 0, 0, 0, 0, 0, 0, 0, 0, 0, 0, 0, 0, 0, 0, 0, 0, 0, 0, 0, 0, 0, 0, 0, 0, 0, 0, 0, 0, 0, 0, 0, 0, 0, 0, 0, 0, 0, 0, 0, 0, 0, 0, 0, 0, 0, 0, 0, 0, 0, 0, 0, 0, 0, 0, 0, 0, 0, 0, 0, 0, 0, 0, 0, 0, 0, 0, 0, 0, 0, 0, 0, 0, 0, 0, 0, 0, 0, 0, 0, 0, 0, 0, 0, 0, 0, 0, 0, 0, 0, 0, 0, 0, 0, 0, 0, 0, 0, 0, 0, 0, 0, 0, 0, 0, 0, 0, 0, 0, 0, 0, 0, 0, 0, 0, 0, 0, 0, 0, 0, 0, 0, 0, 0, 0, 0, 0, 0, 0, 0, 0, 0, 0, 0, 0, 0, 32, 0, 0, 0, 161, 232, 149, 56, 2, 28, 149, 56, 194, 17, 183, 56, 13, 176, 136, 56, 56, 60, 191, 56, 184, 227, 158, 56, 72, 96, 220, 56, 179, 228, 160, 56, 133, 245, 220, 56, 40, 40, 160, 56, 124, 235, 189, 56, 202, 209, 206, 56, 251, 123, 82, 56, 254, 61, 166, 56, 249, 61, 232, 56, 7, 246, 139, 56, 180, 26, 189, 56, 106, 102, 139, 56, 219, 1, 223, 56, 98, 240, 181, 56, 155, 60, 132, 56, 211, 107, 217, 56, 54, 31, 206, 56, 91, 10, 195, 56, 106, 42, 195, 56, 218, 167, 145, 56, 176, 137, 242, 56, 184, 130, 145, 56, 95, 120, 215, 56, 111, 62, 159, 56, 240, 164, 171, 56, 178, 229, 187, 56, 19, 0, 0, 0, 116, 102, 108, 46, 112, 115, 101, 117, 100, 111, 95, 113, 99, 111, 110, 115, 116, 49, 52, 0, 1, 0, 0, 0, 32, 0, 0, 0, 58, 229, 255, 255, 0, 0, 0, 1, 20, 0, 0, 0, 40, 3, 0, 0, 19, 0, 0, 0, 0, 0, 0, 9, 52, 3, 0, 0, 188, 228, 255, 255, 8, 0, 0, 0, 12, 2, 0, 0, 64, 0, 0, 0, 0, 0, 0, 0, 0, 0, 0, 0, 0, 0, 0, 0, 0, 0, 0, 0, 0, 0, 0, 0, 0, 0, 0, 0, 0, 0, 0, 0, 0, 0, 0, 0, 0, 0, 0, 0, 0, 0, 0, 0, 0, 0, 0, 0, 0, 0, 0, 0, 0, 0, 0, 0, 0, 0, 0, 0, 0, 0, 0, 0, 0, 0, 0, 0, 0, 0, 0, 0, 0, 0, 0, 0, 0, 0, 0, 0, 0, 0, 0, 0, 0, 0, 0, 0, 0, 0, 0, 0, 0, 0, 0, 0, 0, 0, 0, 0, 0, 0, 0, 0, 0, 0, 0, 0, 0, 0, 0, 0, 0, 0, 0, 0, 0, 0, 0, 0, 0, 0, 0, 0, 0, 0, 0, 0, 0, 0, 0, 0, 0, 0, 0, 0, 0, 0, 0, 0, 0, 0, 0, 0, 0, 0, 0, 0, 0, 0, 0, 0, 0, 0, 0, 0, 0, 0, 0, 0, 0, 0, 0, 0, 0, 0, 0, 0, 0, 0, 0, 0, 0, 0, 0, 0, 0, 0, 0, 0, 0, 0, 0, 0, 0, 0, 0, 0, 0, 0, 0, 0, 0, 0, 0, 0, 0, 0, 0, 0, 0, 0, 0, 0, 0, 0, 0, 0, 0, 0, 0, 0, 0, 0, 0, 0, 0, 0, 0, 0, 0, 0, 0, 0, 0, 0, 0, 0, 0, 0, 0, 0, 0, 0, 0, 0, 0, 0, 0, 0, 0, 0, 0, 0, 0, 0, 0, 0, 0, 0, 0, 0, 0, 0, 0, 0, 0, 0, 0, 0, 0, 0, 0, 0, 0, 0, 0, 0, 0, 0, 0, 0, 0, 0, 0, 0, 0, 0, 0, 0, 0, 0, 0, 0, 0, 0, 0, 0, 0, 0, 0, 0, 0, 0, 0, 0, 0, 0, 0, 0, 0, 0, 0, 0, 0, 0, 0, 0, 0, 0, 0, 0, 0, 0, 0, 0, 0, 0, 0, 0, 0, 0, 0, 0, 0, 0, 0, 0, 0, 0, 0, 0, 0, 0, 0, 0, 0, 0, 0, 0, 0, 0, 0, 0, 0, 0, 0, 0, 0, 0, 0, 0, 0, 0, 0, 0, 0, 0, 0, 0, 0, 0, 0, 0, 0, 0, 0, 0, 0, 0, 0, 0, 0, 0, 0, 0, 0, 0, 0, 0, 0, 0, 0, 0, 0, 0, 0, 0, 0, 0, 0, 0, 0, 0, 0, 0, 0, 0, 0, 0, 0, 0, 0, 0, 0, 0, 0, 0, 0, 0, 0, 0, 0, 0, 0, 0, 0, 0, 0, 0, 0, 0, 0, 0, 0, 0, 0, 0, 0, 0, 0, 0, 0, 0, 0, 0, 0, 0, 0, 0, 0, 0, 0, 0, 0, 0, 0, 0, 0, 0, 0, 0, 0, 0, 0, 0, 0, 0, 0, 0, 0, 0, 0, 0, 0, 0, 0, 0, 0, 0, 0, 0, 0, 0, 0, 0, 0, 0, 0, 0, 0, 0, 0, 0, 0, 0, 0, 0, 0, 0, 0, 0, 0, 0, 0, 0, 0, 0, 0, 0, 0, 0, 0, 0, 0, 0, 0, 0, 0, 0, 0, 0, 0, 0, 0, 0, 0, 0, 0, 0, 64, 0, 0, 0, 44, 110, 246, 58, 199, 238, 52, 59, 235, 195, 43, 59, 200, 190, 15, 59, 253, 209, 13, 59, 22, 240, 26, 59, 135, 11, 12, 59, 92, 206, 4, 59, 248, 40, 235, 58, 237, 91, 7, 59, 30, 92, 32, 59, 243, 57, 36, 59, 201, 180, 0, 59, 248, 73, 17, 59, 38, 212, 37, 59, 108, 160, 0, 59, 154, 170, 25, 59, 245, 246, 16, 59, 105, 57, 25, 59, 203, 75, 37, 59, 177, 236, 8, 59, 125, 173, 33, 59, 70, 204, 7, 59, 0, 235, 255, 58, 90, 162, 40, 59, 134, 109, 27, 59, 39, 118, 12, 59, 149, 51, 6, 59, 102, 177, 246, 58, 135, 45, 6, 59, 204, 126, 27, 59, 237, 136, 22, 59, 72, 186, 12, 59, 4, 34, 18, 59, 23, 48, 23, 59, 61, 75, 26, 59, 219, 112, 23, 59, 222, 186, 36, 59, 180, 216, 7, 59, 47, 159, 17, 59, 85, 61, 32, 59, 188, 42, 18, 59, 227, 72, 16, 59, 51, 115, 243, 58, 85, 160, 0, 59, 33, 228, 2, 59, 253, 171, 23, 59, 122, 96, 38, 59, 220, 109, 32, 59, 216, 211, 7, 59, 144, 156, 18, 59, 143, 13, 1, 59, 58, 233, 232, 58, 170, 213, 28, 59, 226, 141, 30, 59, 186, 235, 8, 59, 201, 133, 24, 59, 242, 141, 36, 59, 175, 93, 26, 59, 41, 248, 21, 59, 56, 188, 6, 59, 250, 181, 33, 59, 201, 129, 0, 59, 141, 28, 3, 59, 19, 0, 0, 0, 116, 102, 108, 46, 112, 115, 101, 117, 100, 111, 95, 113, 99, 111, 110, 115, 116, 49, 51, 0, 4, 0, 0, 0, 64, 0, 0, 0, 1, 0, 0, 0, 1, 0, 0, 0, 32, 0, 0, 0, 154, 232, 255, 255, 0, 0, 0, 1, 20, 0, 0, 0, 36, 3, 0, 0, 18, 0, 0, 0, 0, 0, 0, 2, 48, 3, 0, 0, 28, 232, 255, 255, 8, 0, 0, 0, 8, 2, 0, 0, 64, 0, 0, 0, 0, 0, 0, 0, 0, 0, 0, 0, 0, 0, 0, 0, 0, 0, 0, 0, 0, 0, 0, 0, 0, 0, 0, 0, 0, 0, 0, 0, 0, 0, 0, 0, 0, 0, 0, 0, 0, 0, 0, 0, 0, 0, 0, 0, 0, 0, 0, 0, 0, 0, 0, 0, 0, 0, 0, 0, 0, 0, 0, 0, 0, 0, 0, 0, 0, 0, 0, 0, 0, 0, 0, 0, 0, 0, 0, 0, 0, 0, 0, 0, 0, 0, 0, 0, 0, 0, 0, 0, 0, 0, 0, 0, 0, 0, 0, 0, 0, 0, 0, 0, 0, 0, 0, 0, 0, 0, 0, 0, 0, 0, 0, 0, 0, 0, 0, 0, 0, 0, 0, 0, 0, 0, 0, 0, 0, 0, 0, 0, 0, 0, 0, 0, 0, 0, 0, 0, 0, 0, 0, 0, 0, 0, 0, 0, 0, 0, 0, 0, 0, 0, 0, 0, 0, 0, 0, 0, 0, 0, 0, 0, 0, 0, 0, 0, 0, 0, 0, 0, 0, 0, 0, 0, 0, 0, 0, 0, 0, 0, 0, 0, 0, 0, 0, 0, 0, 0, 0, 0, 0, 0, 0, 0, 0, 0, 0, 0, 0, 0, 0, 0, 0, 0, 0, 0, 0, 0, 0, 0, 0, 0, 0, 0, 0, 0, 0, 0, 0, 0, 0, 0, 0, 0, 0, 0, 0, 0, 0, 0, 0, 0, 0, 0, 0, 0, 0, 0, 0, 0, 0, 0, 0, 0, 0, 0, 0, 0, 0, 0, 0, 0, 0, 0, 0, 0, 0, 0, 0, 0, 0, 0, 0, 0, 0, 0, 0, 0, 0, 0, 0, 0, 0, 0, 0, 0, 0, 0, 0, 0, 0, 0, 0, 0, 0, 0, 0, 0, 0, 0, 0, 0, 0, 0, 0, 0, 0, 0, 0, 0, 0, 0, 0, 0, 0, 0, 0, 0, 0, 0, 0, 0, 0, 0, 0, 0, 0, 0, 0, 0, 0, 0, 0, 0, 0, 0, 0, 0, 0, 0, 0, 0, 0, 0, 0, 0, 0, 0, 0, 0, 0, 0, 0, 0, 0, 0, 0, 0, 0, 0, 0, 0, 0, 0, 0, 0, 0, 0, 0, 0, 0, 0, 0, 0, 0, 0, 0, 0, 0, 0, 0, 0, 0, 0, 0, 0, 0, 0, 0, 0, 0, 0, 0, 0, 0, 0, 0, 0, 0, 0, 0, 0, 0, 0, 0, 0, 0, 0, 0, 0, 0, 0, 0, 0, 0, 0, 0, 0, 0, 0, 0, 0, 0, 0, 0, 0, 0, 0, 0, 0, 0, 0, 0, 0, 0, 0, 0, 0, 0, 0, 0, 0, 0, 0, 0, 0, 0, 0, 0, 0, 0, 0, 0, 0, 0, 0, 0, 0, 0, 0, 0, 0, 0, 0, 0, 0, 0, 0, 0, 0, 0, 0, 0, 0, 0, 0, 0, 0, 0, 0, 0, 0, 0, 0, 0, 0, 0, 0, 0, 0, 0, 0, 0, 0, 0, 0, 0, 0, 0, 0, 0, 0, 0, 0, 0, 0, 0, 0, 0, 0, 0, 0, 0, 0, 0, 0, 0, 0, 0, 0, 0, 0, 0, 0, 64, 0, 0, 0, 176, 24, 111, 56, 77, 140, 175, 56, 73, 167, 166, 56, 160, 119, 139, 56, 128, 153, 137, 56, 168, 83, 150, 56, 144, 224, 135, 56, 140, 218, 128, 56, 89, 41, 100, 56, 169, 84, 131, 56, 97, 150, 155, 56, 193, 86, 159, 56, 106, 192, 121, 56, 13, 247, 140, 56, 191, 228, 160, 56, 231, 152, 121, 56, 220, 23, 149, 56, 131, 166, 140, 56, 9, 170, 148, 56, 114, 96, 160, 56, 128, 217, 132, 56, 182, 221, 156, 56, 170, 193, 131, 56, 59, 77, 120, 56, 147, 157, 163, 56, 92, 205, 150, 56, 4, 72, 136, 56, 35, 53, 130, 56, 233, 89, 111, 56, 67, 47, 130, 56, 31, 222, 150, 56, 11, 14, 146, 56, 30, 138, 136, 56, 171, 200, 141, 56, 59, 176, 146, 56, 183, 179, 149, 56, 18, 239, 146, 56, 214, 211, 159, 56, 186, 205, 131, 56, 187, 73, 141, 56, 131, 120, 155, 56, 33, 209, 141, 56, 159, 253, 139, 56, 107, 52, 108, 56, 186, 152, 121, 56, 207, 253, 125, 56, 113, 40, 147, 56, 229, 108, 161, 56, 152, 167, 155, 56, 3, 201, 131, 56, 146, 63, 142, 56, 174, 108, 122, 56, 190, 250, 97, 56, 201, 42, 152, 56, 231, 213, 153, 56, 144, 216, 132, 56, 194, 251, 147, 56, 64, 168, 159, 56, 156, 197, 149, 56, 150, 129, 145, 56, 181, 185, 130, 56, 242, 229, 156, 56, 115, 93, 121, 56, 76, 107, 126, 56, 19, 0, 0, 0, 116, 102, 108, 46, 112, 115, 101, 117, 100, 111, 95, 113, 99, 111, 110, 115, 116, 49, 50, 0, 1, 0, 0, 0, 64, 0, 0, 0, 234, 235, 255, 255, 0, 0, 0, 1, 20, 0, 0, 0, 52, 0, 0, 0, 17, 0, 0, 0, 0, 0, 0, 9, 64, 0, 0, 0, 108, 235, 255, 255, 8, 0, 0, 0, 20, 0, 0, 0, 1, 0, 0, 0, 128, 255, 255, 255, 255, 255, 255, 255, 0, 0, 0, 0, 1, 0, 0, 0, 111, 75, 17, 61, 19, 0, 0, 0, 116, 102, 108, 46, 112, 115, 101, 117, 100, 111, 95, 113, 99, 111, 110, 115, 116, 49, 49, 0, 1, 0, 0, 0, 64, 0, 0, 0, 74, 236, 255, 255, 0, 0, 0, 1, 20, 0, 0, 0, 52, 0, 0, 0, 16, 0, 0, 0, 0, 0, 0, 9, 64, 0, 0, 0, 204, 235, 255, 255, 8, 0, 0, 0, 20, 0, 0, 0, 1, 0, 0, 0, 127, 0, 0, 0, 0, 0, 0, 0, 0, 0, 0, 0, 1, 0, 0, 0, 241, 38, 91, 59, 19, 0, 0, 0, 116, 102, 108, 46, 112, 115, 101, 117, 100, 111, 95, 113, 99, 111, 110, 115, 116, 49, 48, 0, 1, 0, 0, 0, 64, 0, 0, 0, 170, 236, 255, 255, 0, 0, 0, 1, 40, 0, 0, 0, 64, 3, 0, 0, 15, 0, 0, 0, 0, 0, 0, 9, 76, 3, 0, 0, 0, 0, 18, 0, 16, 0, 0, 0, 0, 0, 12, 0, 8, 0, 0, 0, 0, 0, 4, 0, 18, 0, 0, 0, 3, 0, 0, 0, 8, 0, 0, 0, 12, 2, 0, 0, 64, 0, 0, 0, 0, 0, 0, 0, 0, 0, 0, 0, 0, 0, 0, 0, 0, 0, 0, 0, 0, 0, 0, 0, 0, 0, 0, 0, 0, 0, 0, 0, 0, 0, 0, 0, 0, 0, 0, 0, 0, 0, 0, 0, 0, 0, 0, 0, 0, 0, 0, 0, 0, 0, 0, 0, 0, 0, 0, 0, 0, 0, 0, 0, 0, 0, 0, 0, 0, 0, 0, 0, 0, 0, 0, 0, 0, 0, 0, 0, 0, 0, 0, 0, 0, 0, 0, 0, 0, 0, 0, 0, 0, 0, 0, 0, 0, 0, 0, 0, 0, 0, 0, 0, 0, 0, 0, 0, 0, 0, 0, 0, 0, 0, 0, 0, 0, 0, 0, 0, 0, 0, 0, 0, 0, 0, 0, 0, 0, 0, 0, 0, 0, 0, 0, 0, 0, 0, 0, 0, 0, 0, 0, 0, 0, 0, 0, 0, 0, 0, 0, 0, 0, 0, 0, 0, 0, 0, 0, 0, 0, 0, 0, 0, 0, 0, 0, 0, 0, 0, 0, 0, 0, 0, 0, 0, 0, 0, 0, 0, 0, 0, 0, 0, 0, 0, 0, 0, 0, 0, 0, 0, 0, 0, 0, 0, 0, 0, 0, 0, 0, 0, 0, 0, 0, 0, 0, 0, 0, 0, 0, 0, 0, 0, 0, 0, 0, 0, 0, 0, 0, 0, 0, 0, 0, 0, 0, 0, 0, 0, 0, 0, 0, 0, 0, 0, 0, 0, 0, 0, 0, 0, 0, 0, 0, 0, 0, 0, 0, 0, 0, 0, 0, 0, 0, 0, 0, 0, 0, 0, 0, 0, 0, 0, 0, 0, 0, 0, 0, 0, 0, 0, 0, 0, 0, 0, 0, 0, 0, 0, 0, 0, 0, 0, 0, 0, 0, 0, 0, 0, 0, 0, 0, 0, 0, 0, 0, 0, 0, 0, 0, 0, 0, 0, 0, 0, 0, 0, 0, 0, 0, 0, 0, 0, 0, 0, 0, 0, 0, 0, 0, 0, 0, 0, 0, 0, 0, 0, 0, 0, 0, 0, 0, 0, 0, 0, 0, 0, 0, 0, 0, 0, 0, 0, 0, 0, 0, 0, 0, 0, 0, 0, 0, 0, 0, 0, 0, 0, 0, 0, 0, 0, 0, 0, 0, 0, 0, 0, 0, 0, 0, 0, 0, 0, 0, 0, 0, 0, 0, 0, 0, 0, 0, 0, 0, 0, 0, 0, 0, 0, 0, 0, 0, 0, 0, 0, 0, 0, 0, 0, 0, 0, 0, 0, 0, 0, 0, 0, 0, 0, 0, 0, 0, 0, 0, 0, 0, 0, 0, 0, 0, 0, 0, 0, 0, 0, 0, 0, 0, 0, 0, 0, 0, 0, 0, 0, 0, 0, 0, 0, 0, 0, 0, 0, 0, 0, 0, 0, 0, 0, 0, 0, 0, 0, 0, 0, 0, 0, 0, 0, 0, 0, 0, 0, 0, 0, 0, 0, 0, 0, 0, 0, 0, 0, 0, 0, 0, 0, 0, 0, 0, 0, 0, 0, 0, 0, 0, 0, 0, 0, 0, 0, 0, 0, 0, 0, 0, 0, 0, 0, 0, 0, 0, 0, 0, 0, 0, 0, 0, 0, 0, 0, 0, 0, 0, 0, 0, 0, 0, 0, 64, 0, 0, 0, 155, 14, 190, 58, 226, 181, 181, 58, 71, 64, 146, 58, 254, 26, 55, 58, 206, 66, 82, 58, 17, 14, 140, 58, 11, 34, 175, 58, 215, 237, 205, 58, 187, 228, 97, 58, 7, 99, 139, 58, 74, 19, 164, 58, 19, 152, 113, 58, 246, 87, 206, 58, 167, 86, 161, 58, 153, 35, 238, 58, 251, 111, 122, 58, 33, 226, 162, 58, 46, 114, 183, 58, 102, 203, 127, 58, 151, 94, 173, 58, 190, 171, 185, 58, 237, 235, 203, 58, 201, 71, 201, 58, 217, 120, 172, 58, 200, 91, 133, 58, 38, 115, 126, 58, 1, 156, 143, 58, 145, 41, 53, 58, 132, 12, 129, 58, 200, 162, 92, 58, 30, 149, 141, 58, 170, 53, 167, 58, 105, 60, 109, 58, 202, 231, 173, 58, 46, 45, 168, 58, 127, 140, 184, 58, 214, 222, 59, 58, 218, 130, 86, 58, 16, 203, 199, 58, 240, 17, 135, 58, 44, 11, 224, 58, 36, 50, 185, 58, 18, 19, 161, 58, 179, 159, 171, 58, 65, 21, 127, 58, 236, 126, 92, 58, 181, 65, 64, 58, 236, 53, 98, 58, 55, 252, 155, 58, 53, 148, 128, 58, 0, 103, 207, 58, 145, 163, 174, 57, 226, 27, 201, 58, 75, 17, 89, 58, 95, 149, 169, 58, 103, 229, 99, 58, 246, 182, 166, 58, 5, 38, 117, 58, 104, 23, 72, 58, 178, 60, 138, 58, 33, 191, 137, 58, 54, 246, 150, 58, 0, 124, 130, 58, 193, 73, 240, 58, 18, 0, 0, 0, 116, 102, 108, 46, 112, 115, 101, 117, 100, 111, 95, 113, 99, 111, 110, 115, 116, 57, 0, 0, 4, 0, 0, 0, 1, 0, 0, 0, 1, 0, 0, 0, 3, 0, 0, 0, 64, 0, 0, 0, 34, 240, 255, 255, 0, 0, 0, 1, 20, 0, 0, 0, 36, 3, 0, 0, 14, 0, 0, 0, 0, 0, 0, 2, 48, 3, 0, 0, 164, 239, 255, 255, 8, 0, 0, 0, 8, 2, 0, 0, 64, 0, 0, 0, 0, 0, 0, 0, 0, 0, 0, 0, 0, 0, 0, 0, 0, 0, 0, 0, 0, 0, 0, 0, 0, 0, 0, 0, 0, 0, 0, 0, 0, 0, 0, 0, 0, 0, 0, 0, 0, 0, 0, 0, 0, 0, 0, 0, 0, 0, 0, 0, 0, 0, 0, 0, 0, 0, 0, 0, 0, 0, 0, 0, 0, 0, 0, 0, 0, 0, 0, 0, 0, 0, 0, 0, 0, 0, 0, 0, 0, 0, 0, 0, 0, 0, 0, 0, 0, 0, 0, 0, 0, 0, 0, 0, 0, 0, 0, 0, 0, 0, 0, 0, 0, 0, 0, 0, 0, 0, 0, 0, 0, 0, 0, 0, 0, 0, 0, 0, 0, 0, 0, 0, 0, 0, 0, 0, 0, 0, 0, 0, 0, 0, 0, 0, 0, 0, 0, 0, 0, 0, 0, 0, 0, 0, 0, 0, 0, 0, 0, 0, 0, 0, 0, 0, 0, 0, 0, 0, 0, 0, 0, 0, 0, 0, 0, 0, 0, 0, 0, 0, 0, 0, 0, 0, 0, 0, 0, 0, 0, 0, 0, 0, 0, 0, 0, 0, 0, 0, 0, 0, 0, 0, 0, 0, 0, 0, 0, 0, 0, 0, 0, 0, 0, 0, 0, 0, 0, 0, 0, 0, 0, 0, 0, 0, 0, 0, 0, 0, 0, 0, 0, 0, 0, 0, 0, 0, 0, 0, 0, 0, 0, 0, 0, 0, 0, 0, 0, 0, 0, 0, 0, 0, 0, 0, 0, 0, 0, 0, 0, 0, 0, 0, 0, 0, 0, 0, 0, 0, 0, 0, 0, 0, 0, 0, 0, 0, 0, 0, 0, 0, 0, 0, 0, 0, 0, 0, 0, 0, 0, 0, 0, 0, 0, 0, 0, 0, 0, 0, 0, 0, 0, 0, 0, 0, 0, 0, 0, 0, 0, 0, 0, 0, 0, 0, 0, 0, 0, 0, 0, 0, 0, 0, 0, 0, 0, 0, 0, 0, 0, 0, 0, 0, 0, 0, 0, 0, 0, 0, 0, 0, 0, 0, 0, 0, 0, 0, 0, 0, 0, 0, 0, 0, 0, 0, 0, 0, 0, 0, 0, 0, 0, 0, 0, 0, 0, 0, 0, 0, 0, 0, 0, 0, 0, 0, 0, 0, 0, 0, 0, 0, 0, 0, 0, 0, 0, 0, 0, 0, 0, 0, 0, 0, 0, 0, 0, 0, 0, 0, 0, 0, 0, 0, 0, 0, 0, 0, 0, 0, 0, 0, 0, 0, 0, 0, 0, 0, 0, 0, 0, 0, 0, 0, 0, 0, 0, 0, 0, 0, 0, 0, 0, 0, 0, 0, 0, 0, 0, 0, 0, 0, 0, 0, 0, 0, 0, 0, 0, 0, 0, 0, 0, 0, 0, 0, 0, 0, 0, 0, 0, 0, 0, 0, 0, 0, 0, 0, 0, 0, 0, 0, 0, 0, 0, 0, 0, 0, 0, 0, 0, 0, 0, 0, 0, 0, 0, 0, 0, 0, 0, 0, 0, 0, 0, 0, 0, 0, 0, 0, 0, 0, 0, 0, 0, 0, 0, 0, 0, 0, 0, 0, 0, 0, 0, 0, 0, 0, 0, 0, 0, 0, 0, 0, 0, 0, 64, 0, 0, 0, 33, 244, 186, 56, 76, 190, 178, 56, 235, 220, 143, 56, 148, 29, 52, 56, 224, 211, 78, 56, 156, 196, 137, 56, 244, 69, 172, 56, 4, 145, 202, 56, 116, 52, 94, 56, 93, 28, 137, 56, 108, 101, 161, 56, 42, 166, 109, 56, 104, 249, 202, 56, 58, 180, 158, 56, 34, 64, 234, 56, 27, 89, 118, 56, 63, 57, 160, 56, 87, 115, 180, 56, 33, 158, 123, 56, 223, 137, 170, 56, 154, 163, 182, 56, 127, 151, 200, 56, 101, 254, 197, 56, 226, 167, 169, 56, 81, 46, 131, 56, 128, 75, 122, 56, 176, 67, 141, 56, 70, 52, 50, 56, 34, 226, 125, 56, 123, 8, 89, 56, 70, 69, 139, 56, 178, 122, 164, 56, 184, 92, 105, 56, 213, 16, 171, 56, 43, 110, 165, 56, 12, 137, 181, 56, 128, 205, 56, 56, 39, 2, 83, 56, 228, 135, 196, 56, 82, 221, 132, 56, 160, 98, 220, 56, 253, 43, 182, 56, 192, 113, 158, 56, 71, 210, 168, 56, 245, 234, 122, 56, 53, 229, 88, 56, 10, 30, 61, 56, 81, 132, 94, 56, 43, 112, 153, 56, 114, 245, 124, 56, 5, 4, 204, 56, 139, 201, 171, 55, 54, 211, 197, 56, 233, 133, 85, 56, 123, 208, 166, 56, 193, 44, 96, 56, 16, 254, 163, 56, 64, 37, 113, 56, 252, 210, 68, 56, 214, 250, 135, 56, 82, 127, 135, 56, 41, 127, 148, 56, 141, 90, 128, 56, 78, 93, 236, 56, 18, 0, 0, 0, 116, 102, 108, 46, 112, 115, 101, 117, 100, 111, 95, 113, 99, 111, 110, 115, 116, 56, 0, 0, 1, 0, 0, 0, 64, 0, 0, 0, 114, 243, 255, 255, 0, 0, 0, 1, 20, 0, 0, 0, 40, 3, 0, 0, 13, 0, 0, 0, 0, 0, 0, 9, 52, 3, 0, 0, 244, 242, 255, 255, 8, 0, 0, 0, 12, 2, 0, 0, 64, 0, 0, 0, 0, 0, 0, 0, 0, 0, 0, 0, 0, 0, 0, 0, 0, 0, 0, 0, 0, 0, 0, 0, 0, 0, 0, 0, 0, 0, 0, 0, 0, 0, 0, 0, 0, 0, 0, 0, 0, 0, 0, 0, 0, 0, 0, 0, 0, 0, 0, 0, 0, 0, 0, 0, 0, 0, 0, 0, 0, 0, 0, 0, 0, 0, 0, 0, 0, 0, 0, 0, 0, 0, 0, 0, 0, 0, 0, 0, 0, 0, 0, 0, 0, 0, 0, 0, 0, 0, 0, 0, 0, 0, 0, 0, 0, 0, 0, 0, 0, 0, 0, 0, 0, 0, 0, 0, 0, 0, 0, 0, 0, 0, 0, 0, 0, 0, 0, 0, 0, 0, 0, 0, 0, 0, 0, 0, 0, 0, 0, 0, 0, 0, 0, 0, 0, 0, 0, 0, 0, 0, 0, 0, 0, 0, 0, 0, 0, 0, 0, 0, 0, 0, 0, 0, 0, 0, 0, 0, 0, 0, 0, 0, 0, 0, 0, 0, 0, 0, 0, 0, 0, 0, 0, 0, 0, 0, 0, 0, 0, 0, 0, 0, 0, 0, 0, 0, 0, 0, 0, 0, 0, 0, 0, 0, 0, 0, 0, 0, 0, 0, 0, 0, 0, 0, 0, 0, 0, 0, 0, 0, 0, 0, 0, 0, 0, 0, 0, 0, 0, 0, 0, 0, 0, 0, 0, 0, 0, 0, 0, 0, 0, 0, 0, 0, 0, 0, 0, 0, 0, 0, 0, 0, 0, 0, 0, 0, 0, 0, 0, 0, 0, 0, 0, 0, 0, 0, 0, 0, 0, 0, 0, 0, 0, 0, 0, 0, 0, 0, 0, 0, 0, 0, 0, 0, 0, 0, 0, 0, 0, 0, 0, 0, 0, 0, 0, 0, 0, 0, 0, 0, 0, 0, 0, 0, 0, 0, 0, 0, 0, 0, 0, 0, 0, 0, 0, 0, 0, 0, 0, 0, 0, 0, 0, 0, 0, 0, 0, 0, 0, 0, 0, 0, 0, 0, 0, 0, 0, 0, 0, 0, 0, 0, 0, 0, 0, 0, 0, 0, 0, 0, 0, 0, 0, 0, 0, 0, 0, 0, 0, 0, 0, 0, 0, 0, 0, 0, 0, 0, 0, 0, 0, 0, 0, 0, 0, 0, 0, 0, 0, 0, 0, 0, 0, 0, 0, 0, 0, 0, 0, 0, 0, 0, 0, 0, 0, 0, 0, 0, 0, 0, 0, 0, 0, 0, 0, 0, 0, 0, 0, 0, 0, 0, 0, 0, 0, 0, 0, 0, 0, 0, 0, 0, 0, 0, 0, 0, 0, 0, 0, 0, 0, 0, 0, 0, 0, 0, 0, 0, 0, 0, 0, 0, 0, 0, 0, 0, 0, 0, 0, 0, 0, 0, 0, 0, 0, 0, 0, 0, 0, 0, 0, 0, 0, 0, 0, 0, 0, 0, 0, 0, 0, 0, 0, 0, 0, 0, 0, 0, 0, 0, 0, 0, 0, 0, 0, 0, 0, 0, 0, 0, 0, 0, 0, 0, 0, 0, 0, 0, 0, 0, 0, 0, 0, 0, 0, 0, 0, 0, 0, 0, 0, 0, 0, 0, 0, 0, 0, 0, 0, 0, 0, 0, 0, 0, 0, 0, 0, 0, 64, 0, 0, 0, 252, 34, 26, 59, 114, 77, 8, 59, 248, 246, 53, 59, 106, 130, 3, 59, 117, 75, 18, 59, 186, 183, 0, 59, 86, 125, 8, 59, 140, 20, 3, 59, 0, 134, 239, 58, 57, 104, 246, 58, 40, 133, 7, 59, 17, 240, 3, 59, 31, 88, 7, 59, 210, 194, 7, 59, 177, 155, 18, 59, 209, 147, 7, 59, 81, 142, 247, 58, 139, 90, 9, 59, 216, 243, 243, 58, 115, 16, 241, 58, 2, 117, 47, 59, 181, 149, 244, 58, 35, 150, 5, 59, 133, 86, 19, 59, 144, 243, 0, 59, 221, 41, 243, 58, 96, 138, 36, 59, 86, 111, 35, 59, 71, 210, 254, 58, 175, 27, 12, 59, 23, 196, 27, 59, 26, 201, 11, 59, 227, 161, 3, 59, 228, 43, 7, 59, 29, 125, 22, 59, 87, 10, 4, 59, 27, 221, 17, 59, 26, 43, 5, 59, 249, 4, 10, 59, 62, 95, 11, 59, 145, 93, 243, 58, 62, 20, 231, 58, 47, 34, 9, 59, 61, 6, 3, 59, 15, 156, 7, 59, 231, 28, 11, 59, 177, 43, 235, 58, 187, 181, 4, 59, 138, 85, 8, 59, 223, 237, 20, 59, 118, 51, 5, 59, 18, 97, 19, 59, 132, 84, 11, 59, 176, 90, 13, 59, 238, 92, 25, 59, 84, 112, 12, 59, 8, 145, 248, 58, 56, 46, 12, 59, 1, 216, 0, 59, 137, 168, 247, 58, 